<pad>	0
<s>	0
</s>	0
<unk>	0
(ADJP	0
(ADVP	0
(CONJP	0
(FRAG	0
(INTJ	0
(LST	0
(NAC	0
(NP	0
(NX	0
(PP	0
(PRN	0
(PRT	0
(QP	0
(RRC	0
(S	0
(S1	0
(SBAR	0
(SBARQ	0
(SINV	0
(SQ	0
(UCP	0
(VP	0
(WHADJP	0
(WHADVP	0
(WHNP	0
(WHPP	0
(X	0
ADJP)	0
ADVP)	0
CONJP)	0
FRAG)	0
INTJ)	0
LST)	0
NAC)	0
NP)	0
NX)	0
PP)	0
PRN)	0
PRT)	0
QP)	0
RRC)	0
S)	0
S1)	0
SBAR)	0
SBARQ)	0
SINV)	0
SQ)	0
UCP)	0
VP)	0
WHADJP)	0
WHADVP)	0
WHNP)	0
WHPP)	0
X)	0
-LRB-	0
-RRB-	0
▁	-0.292384
.	-4.3402
▁,	-4.5161
▁the	-4.66631
s	-4.87834
'	-4.99884
▁of	-5.26261
▁to	-5.31549
▁a	-5.47746
▁and	-5.6197
`	-5.68101
▁in	-5.69245
-	-5.91738
ed	-6.16708
▁that	-6.2404
▁for	-6.29828
▁The	-6.4414
▁is	-6.47312
ing	-6.50492
▁$	-6.5212
▁said	-6.52739
d	-6.77439
ly	-6.79079
▁it	-6.83886
▁Mr	-6.86595
t	-6.89943
▁with	-6.91681
▁from	-6.9517
▁by	-6.95283
▁be	-6.9645
%	-6.9916
▁at	-7.00504
▁as	-7.01245
▁million	-7.01587
▁was	-7.03359
▁on	-7.07063
▁its	-7.07564
▁has	-7.13512
▁are	-7.14341
▁will	-7.19695
▁have	-7.23823
▁he	-7.27607
S	-7.29281
year	-7.33259
▁company	-7.40367
▁an	-7.45847
▁would	-7.50588
n	-7.56442
▁about	-7.56871
▁which	-7.60418
▁U	-7.64214
▁says	-7.67081
▁--	-7.67189
▁or	-7.70819
▁In	-7.71215
a	-7.72708
▁more	-7.72964
▁his	-7.7309
▁n	-7.74444
y	-7.7508
▁this	-7.77939
▁they	-7.79522
on	-7.81837
▁were	-7.83161
▁had	-7.83499
▁their	-7.83889
▁who	-7.87311
▁been	-7.89359
▁But	-7.90904
▁but	-7.91589
▁than	-7.92862
▁also	-7.9785
▁billion	-8.0344
▁new	-8.0345
▁other	-8.04808
▁Inc	-8.05022
▁shares	-8.09213
▁some	-8.10589
▁up	-8.11216
▁Corp	-8.12631
e	-8.13997
▁New	-8.1447
▁not	-8.15228
▁last	-8.1548
▁one	-8.17456
&	-8.18567
▁market	-8.20394
▁I	-8.2063
▁Co	-8.23684
▁two	-8.24639
▁A	-8.26193
▁It	-8.26319
▁could	-8.27421
▁stock	-8.27524
▁:	-8.28954
▁He	-8.29674
▁years	-8.31825
▁president	-8.34618
▁can	-8.36152
A	-8.37547
▁all	-8.39368
▁York	-8.39696
based	-8.40821
an	-8.42358
▁because	-8.4259
▁government	-8.46659
in	-8.47002
;	-8.47538
▁when	-8.47975
▁do	-8.49011
▁after	-8.49111
▁first	-8.4932
the	-8.53463
▁into	-8.54009
▁any	-8.56278
▁we	-8.56855
▁companies	-8.57175
▁such	-8.58338
▁only	-8.60533
quarter	-8.6357
▁trading	-8.63605
▁if	-8.65745
▁most	-8.66354
▁yesterday	-8.67047
▁sales	-8.6725
▁there	-8.67855
▁may	-8.68377
▁prices	-8.69593
▁increase	-8.70969
▁American	-8.71086
▁many	-8.71182
▁share	-8.72037
▁over	-8.72189
▁much	-8.73281
▁business	-8.74331
B	-8.76345
▁them	-8.77296
earlier	-8.78353
▁so	-8.78685
▁say	-8.78784
▁group	-8.79064
▁unit	-8.79103
re	-8.79243
▁no	-8.79544
▁now	-8.79788
ever	-8.80892
▁concern	-8.81531
▁We	-8.81944
▁did	-8.8197
▁cents	-8.82156
▁three	-8.82634
to	-8.82858
ies	-8.83971
▁people	-8.84251
while	-8.85823
▁rose	-8.8666
▁what	-8.86933
▁under	-8.87024
▁price	-8.8747
out	-8.88365
▁1	-8.88591
or	-8.8861
▁how	-8.89114
▁officials	-8.89896
share	-8.90936
▁make	-8.91529
▁investment	-8.91611
es	-8.92577
▁executive	-8.93448
▁you	-8.94873
▁chief	-8.95783
able	-8.95878
▁out	-8.96093
▁interest	-8.96096
▁against	-8.97099
▁before	-8.97259
▁offer	-8.97965
▁buy	-8.99563
less	-8.99587
▁major	-9.00747
er	-9.01262
▁10	-9.0208
▁decline	-9.02643
▁months	-9.02853
▁even	-9.02889
▁through	-9.03365
▁chairman	-9.0397
▁down	-9.04099
time	-9.04944
▁federal	-9.05421
▁debt	-9.05463
▁And	-9.05884
day	-9.06208
▁Exchange	-9.06847
▁since	-9.07614
▁those	-9.07742
▁week	-9.07983
▁does	-9.08446
▁plan	-9.08528
▁next	-9.0998
▁Bank	-9.10099
▁between	-9.10234
m	-9.10821
▁firm	-9.11195
▁high	-9.11514
▁money	-9.12398
▁just	-9.1244
▁industry	-9.12926
▁made	-9.13136
▁bank	-9.13345
▁financial	-9.13959
▁long	-9.15148
▁still	-9.15152
one	-9.16145
▁trade	-9.16478
old	-9.16575
▁expect	-9.1677
▁They	-9.16904
▁vice	-9.17234
▁total	-9.17541
C	-9.17564
▁should	-9.17689
man	-9.17739
▁get	-9.17828
▁For	-9.18086
▁dollar	-9.18144
▁expected	-9.18187
▁issue	-9.18565
▁1986	-9.18604
▁rates	-9.18825
▁profit	-9.19178
▁foreign	-9.19802
▁banks	-9.19899
▁real	-9.20031
▁As	-9.2032
▁investors	-9.2057
▁move	-9.20682
▁spokesman	-9.20833
▁state	-9.21098
▁contract	-9.21111
▁closed	-9.21372
▁report	-9.21845
▁own	-9.21992
▁common	-9.22435
▁recent	-9.23753
▁like	-9.23931
▁officer	-9.24633
over	-9.24859
▁agreement	-9.24865
▁former	-9.24896
▁part	-9.25431
▁That	-9.25608
▁includ	-9.25936
▁plans	-9.26238
P	-9.26392
▁take	-9.26705
▁these	-9.27432
▁?	-9.27505
▁each	-9.27787
▁help	-9.27797
▁analysts	-9.281
▁higher	-9.28902
▁This	-9.28916
▁bid	-9.28966
▁1987	-9.29295
▁If	-9.29356
▁Japanese	-9.29564
▁want	-9.29613
is	-9.29915
▁well	-9.29971
▁big	-9.30125
▁public	-9.30163
▁him	-9.30431
▁earnings	-9.31707
▁30	-9.31846
▁sell	-9.32087
▁value	-9.32189
us	-9.3277
▁time	-9.32965
▁being	-9.33019
▁20	-9.33317
▁work	-9.33623
▁large	-9.33736
▁another	-9.34201
▁operations	-9.34232
▁might	-9.34577
and	-9.3471
▁current	-9.34837
▁both	-9.35097
▁reported	-9.35265
▁our	-9.35308
▁several	-9.35745
▁pay	-9.36625
▁economic	-9.36957
▁bonds	-9.3723
▁securities	-9.37526
term	-9.38084
▁general	-9.38789
▁comment	-9.39475
▁world	-9.39682
▁lower	-9.39854
▁she	-9.3992
▁sale	-9.40323
▁five	-9.4063
▁past	-9.40841
▁markets	-9.41008
J	-9.411
▁fell	-9.41852
▁revenue	-9.42137
▁issues	-9.42253
▁House	-9.42475
▁agreed	-9.42529
▁remain	-9.42693
rate	-9.4271
month	-9.43354
▁net	-9.43533
▁second	-9.43545
▁very	-9.43934
▁Japan	-9.44404
▁tax	-9.44873
▁funds	-9.44883
ther	-9.4515
▁think	-9.45298
called	-9.45386
▁Reagan	-9.45549
▁Stock	-9.45744
during	-9.45764
▁court	-9.46049
market	-9.46315
▁too	-9.46348
▁director	-9.46561
▁days	-9.46721
▁used	-9.47203
up	-9.47529
▁products	-9.47575
▁oil	-9.47578
▁early	-9.47943
▁system	-9.48089
▁stocks	-9.4818
T	-9.48297
▁National	-9.48766
▁There	-9.49159
▁same	-9.49438
▁receive	-9.49597
▁stake	-9.49779
▁15	-9.50103
▁already	-9.50149
▁meeting	-9.50616
▁program	-9.50984
▁four	-9.51013
▁West	-9.51297
of	-9.51492
▁close	-9.51544
▁cash	-9.52038
▁good	-9.5249
▁At	-9.52521
▁few	-9.52697
▁among	-9.52734
▁off	-9.52837
▁show	-9.52936
1	-9.53279
▁sold	-9.53579
▁assets	-9.54483
▁whe	-9.54558
E	-9.54991
▁use	-9.55332
▁Some	-9.55437
▁continue	-9.5557
▁International	-9.55997
▁effort	-9.56148
▁then	-9.56268
▁provide	-9.56473
▁certain	-9.56898
▁number	-9.56916
▁case	-9.57213
▁least	-9.57258
▁here	-9.57359
▁growth	-9.57389
▁include	-9.57603
▁need	-9.58023
▁where	-9.58388
▁capital	-9.58487
▁raise	-9.59078
▁until	-9.59143
▁six	-9.59304
▁according	-9.59335
▁give	-9.59376
▁Department	-9.59411
tax	-9.59716
▁Congress	-9.59816
▁Friday	-9.60061
came	-9.60097
▁short	-9.60102
▁small	-9.60104
gan	-9.60389
▁recently	-9.60564
▁far	-9.60667
▁average	-9.61447
▁rate	-9.61523
▁added	-9.61525
L	-9.61831
▁12	-9.61985
▁support	-9.62214
o	-9.62874
▁Federal	-9.63213
▁political	-9.63382
▁result	-9.63493
▁costs	-9.63575
▁late	-9.63579
▁back	-9.63667
▁senior	-9.63919
▁cost	-9.6411
▁reach	-9.64278
▁management	-9.64544
▁production	-9.64875
▁British	-9.65427
R	-9.65676
▁official	-9.65711
▁country	-9.65829
F	-9.6607
▁little	-9.66211
▁First	-9.66217
off	-9.66545
ended	-9.67045
without	-9.67064
▁Texas	-9.67386
▁Treasury	-9.67749
▁board	-9.67793
D	-9.67813
▁likely	-9.67899
▁June	-9.68266
▁economy	-9.68318
▁start	-9.68876
▁50	-9.69051
▁national	-9.69211
▁her	-9.69806
▁Securities	-9.69958
▁corporate	-9.70017
▁administration	-9.70144
▁President	-9.70342
▁1988	-9.70571
▁agency	-9.70734
▁analyst	-9.70797
▁must	-9.7082
▁problems	-9.71015
▁Group	-9.71037
▁strong	-9.71086
it	-9.71126
▁11	-9.71502
▁Washington	-9.71955
▁trader	-9.72023
▁level	-9.72329
▁going	-9.73059
▁2	-9.73162
▁see	-9.73931
end	-9.74009
▁Soviet	-9.74083
as	-9.74404
▁maker	-9.74408
▁members	-9.74512
▁income	-9.75137
▁operating	-9.75442
▁become	-9.756
▁On	-9.75691
▁shareholders	-9.75911
▁figure	-9.76028
▁John	-9.76179
p	-9.77188
▁annual	-9.77525
▁fiscal	-9.78036
▁1985	-9.78171
▁period	-9.78185
▁consider	-9.78199
▁loans	-9.78501
▁offering	-9.78528
▁previously	-9.78885
▁believe	-9.79182
▁further	-9.79621
▁March	-9.79797
▁month	-9.79839
▁General	-9.79922
▁25	-9.80004
▁amount	-9.80058
2	-9.80086
▁One	-9.80201
▁plant	-9.80322
▁today	-9.80627
▁employees	-9.80685
▁policy	-9.80761
▁record	-9.80851
▁outstanding	-9.81252
▁propos	-9.81289
5	-9.81549
▁100	-9.81598
▁change	-9.81694
▁decision	-9.81776
▁way	-9.82071
▁July	-9.8263
▁deficit	-9.82798
by	-9.82886
▁loss	-9.83204
▁bill	-9.83279
▁set	-9.83444
▁proposal	-9.84423
▁put	-9.84435
▁though	-9.84687
▁clear	-9.84842
▁better	-9.85004
▁May	-9.85111
ve	-9.85241
▁ago	-9.85294
▁come	-9.85311
led	-9.85516
▁private	-9.85583
▁possible	-9.85792
▁open	-9.85856
▁rise	-9.86146
▁look	-9.86458
▁un	-9.866
▁notes	-9.86605
▁Robert	-9.8689
law	-9.87165
▁computer	-9.87459
▁acquisition	-9.87572
▁law	-9.87713
▁composite	-9.88138
G	-9.8816
▁workers	-9.88474
▁credit	-9.88588
▁When	-9.88971
H	-9.88978
▁office	-9.89371
▁around	-9.89432
▁problem	-9.8944
▁exchange	-9.89553
▁results	-9.896
▁budget	-9.89861
▁N	-9.90298
▁dollars	-9.90493
▁top	-9.90501
8	-9.90607
▁Street	-9.90803
▁file	-9.91325
▁Commission	-9.91362
▁How	-9.91376
espite	-9.91502
▁Ltd	-9.91543
▁London	-9.92119
▁campaign	-9.92332
wide	-9.92585
▁inflation	-9.9283
▁weeks	-9.93086
▁Board	-9.93233
▁South	-9.93308
▁Wall	-9.9367
▁3	-9.93882
▁nation	-9.94066
points	-9.94466
▁America	-9.94543
▁demand	-9.94569
O	-9.94708
▁Chicago	-9.94791
▁announc	-9.94967
al	-9.95089
▁April	-9.95141
▁future	-9.9544
▁allow	-9.95453
▁reflect	-9.95524
▁makes	-9.95637
▁later	-9.95845
▁international	-9.95937
3	-9.95946
▁yen	-9.96087
▁compar	-9.96089
N	-9.96164
▁information	-9.96232
K	-9.96292
▁latest	-9.96366
way	-9.96408
▁home	-9.96771
▁example	-9.96783
▁news	-9.96964
men	-9.96989
▁told	-9.97106
ity	-9.97282
W	-9.97525
▁named	-9.97685
▁executives	-9.97813
▁enough	-9.97865
▁13	-9.97956
▁know	-9.97987
▁To	-9.98028
th	-9.98583
▁countries	-9.98612
▁low	-9.98905
▁holding	-9.99093
▁found	-9.99397
estate	-9.99412
co	-9.99417
ion	-9.99515
▁losses	-9.99598
▁filing	-9.99718
▁currently	-10.0023
ers	-10.0023
▁firms	-10.0041
▁never	-10.0051
▁local	-10.0059
▁full	-10.0091
▁division	-10.0102
▁measure	-10.012
▁14	-10.0126
▁North	-10.0166
▁right	-10.0168
owned	-10.0193
▁31	-10.0195
▁futures	-10.0207
▁Canadian	-10.0211
care	-10.0214
▁face	-10.0221
▁An	-10.0227
▁takeover	-10.0235
▁committee	-10.0236
half	-10.0241
▁suggest	-10.0246
▁index	-10.0285
▁consumer	-10.0321
▁D	-10.0323
▁charges	-10.0356
▁nearly	-10.0358
for	-10.0365
▁purchase	-10.0366
▁1/2	-10.0371
▁gain	-10.038
▁services	-10.0387
▁transaction	-10.0428
▁bond	-10.0443
▁addition	-10.0512
▁best	-10.0533
▁cut	-10.0544
▁additional	-10.0562
▁Ms	-10.0574
▁return	-10.0583
▁sharp	-10.0596
oil	-10.0643
▁got	-10.0649
▁40	-10.0679
▁my	-10.0714
4	-10.0715
▁within	-10.0719
▁keep	-10.0727
▁Last	-10.0729
▁suit	-10.0729
▁special	-10.073
▁commercial	-10.0731
at	-10.0733
▁often	-10.0748
▁due	-10.0752
▁acquired	-10.077
▁held	-10.0781
▁acquire	-10.0782
▁fall	-10.0801
▁Whil	-10.0818
▁selling	-10.0833
▁important	-10.0835
▁spending	-10.0839
▁Union	-10.0852
▁probab	-10.0854
▁Air	-10.0857
▁almost	-10.0868
,	-10.0881
▁changes	-10.0901
▁18	-10.0925
▁non	-10.0927
▁produce	-10.0927
▁personal	-10.0941
▁go	-10.0948
▁Senate	-10.0952
go	-10.0955
▁With	-10.0993
▁No	-10.1009
▁European	-10.101
▁yield	-10.1023
▁research	-10.1027
related	-10.1038
▁programs	-10.1039
▁So	-10.1048
▁left	-10.1051
▁trying	-10.1059
▁Monday	-10.1085
b	-10.1106
▁took	-10.1115
▁buying	-10.1116
M	-10.1122
▁defense	-10.1135
▁United	-10.1147
▁things	-10.1162
▁job	-10.1179
▁others	-10.1193
▁5	-10.1199
▁cause	-10.1201
▁economist	-10.1218
week	-10.1265
▁19	-10.1285
▁drop	-10.131
ness	-10.1314
▁customers	-10.1338
▁businesses	-10.1345
▁study	-10.1353
▁charge	-10.1358
▁control	-10.1365
▁boost	-10.1366
6	-10.1366
back	-10.1383
▁whose	-10.1385
▁hard	-10.1388
ll	-10.1399
▁lot	-10.1423
▁third	-10.1436
▁reduce	-10.144
▁Calif	-10.1448
▁James	-10.1454
▁Under	-10.1456
▁insurance	-10.1459
son	-10.1479
▁hope	-10.1499
▁point	-10.1545
▁military	-10.1549
▁paid	-10.1551
▁industrial	-10.1552
▁After	-10.1553
▁equipment	-10.1615
▁8	-10.1682
▁legal	-10.1693
▁What	-10.1696
▁7	-10.171
▁California	-10.1718
house	-10.1772
▁particular	-10.1772
land	-10.1779
9	-10.1782
▁increasing	-10.1786
▁White	-10.182
▁manager	-10.1834
▁begin	-10.1838
▁accept	-10.1871
▁City	-10.1878
▁tender	-10.1897
▁fund	-10.1935
▁Iran	-10.1935
▁Association	-10.1935
▁units	-10.1949
▁fourth	-10.1954
▁end	-10.1954
▁investor	-10.1963
counter	-10.1967
▁Bush	-10.1977
▁find	-10.1981
I	-10.1984
▁every	-10.2004
▁product	-10.2011
▁difficult	-10.2011
▁yet	-10.2024
▁single	-10.2025
▁rather	-10.2027
▁final	-10.2032
▁order	-10.2034
▁appear	-10.2037
taking	-10.2058
▁represent	-10.206
▁main	-10.207
▁force	-10.2072
▁estimated	-10.2072
▁department	-10.2075
▁Court	-10.2076
▁project	-10.2082
▁terms	-10.2085
▁San	-10.2126
▁health	-10.2126
▁William	-10.2173
▁domestic	-10.2182
▁again	-10.2184
▁drug	-10.2202
▁16	-10.2204
▁previous	-10.2226
▁states	-10.2234
▁power	-10.2236
▁once	-10.2258
▁union	-10.2266
▁effect	-10.2286
▁offered	-10.2301
▁talks	-10.2332
▁More	-10.2336
▁World	-10.2356
▁position	-10.2365
▁Fed	-10.2365
▁fact	-10.2369
▁Europe	-10.2375
l	-10.2387
▁auto	-10.2387
▁Ford	-10.2394
▁continued	-10.2415
▁family	-10.2424
▁direct	-10.243
7	-10.2431
▁deal	-10.2455
▁approved	-10.2468
▁risk	-10.247
▁potential	-10.2474
▁Sen	-10.2504
▁test	-10.2507
▁times	-10.2521
▁volume	-10.2529
▁vote	-10.254
▁German	-10.2551
income	-10.258
▁question	-10.2582
ally	-10.2597
i	-10.2632
▁directors	-10.2639
▁bought	-10.264
▁Boston	-10.2651
▁merger	-10.266
down	-10.2667
▁October	-10.2686
either	-10.2696
▁finance	-10.27
board	-10.271
▁action	-10.2711
he	-10.2721
▁seven	-10.2728
▁subject	-10.2734
▁post	-10.2741
ability	-10.2757
▁preferred	-10.2761
member	-10.2769
trading	-10.2777
▁your	-10.2787
▁17	-10.2794
▁producer	-10.281
▁succeed	-10.2839
▁initial	-10.2845
▁approval	-10.2846
▁require	-10.2848
▁University	-10.2848
▁SEC	-10.2874
▁Jones	-10.2877
largest	-10.2879
▁Tuesday	-10.2895
▁similar	-10.2925
range	-10.2933
▁marks	-10.2938
▁Canada	-10.2941
Y	-10.2942
▁seek	-10.2947
▁Tokyo	-10.2951
▁anti	-10.2972
r	-10.2976
▁release	-10.2982
lthough	-10.2997
sources	-10.3004
ago	-10.3012
▁You	-10.3012
▁Dow	-10.3033
▁soon	-10.3051
line	-10.3081
▁involved	-10.3088
▁process	-10.3091
▁cars	-10.3127
▁increases	-10.3136
▁holders	-10.3144
▁GM	-10.3148
▁Even	-10.3154
▁1984	-10.3158
▁lost	-10.3169
▁seem	-10.3174
c	-10.3178
▁attempt	-10.3186
▁January	-10.3214
▁calls	-10.3221
▁investigation	-10.3227
▁mortgage	-10.3235
▁restructuring	-10.3236
▁central	-10.3275
▁marketing	-10.3276
▁itself	-10.3301
▁taxes	-10.3315
▁pressure	-10.3315
▁Western	-10.3336
stock	-10.3344
▁Germany	-10.3371
sked	-10.3377
▁60	-10.3407
▁thrift	-10.3411
▁life	-10.3418
▁financing	-10.3426
▁managers	-10.344
seeking	-10.3459
▁completed	-10.3467
▁1/4	-10.3476
▁reason	-10.3477
▁gold	-10.35
age	-10.3507
▁Now	-10.351
▁dropped	-10.3511
making	-10.3536
▁Many	-10.3552
aid	-10.3555
▁follow	-10.3561
▁target	-10.3568
▁operate	-10.3575
▁available	-10.3586
▁groups	-10.3601
▁development	-10.3614
▁IBM	-10.3615
▁working	-10.3625
▁statement	-10.363
▁M	-10.3648
field	-10.3678
/	-10.368
▁near	-10.3687
▁different	-10.369
▁outside	-10.3704
▁following	-10.3709
▁December	-10.3742
ce	-10.3751
▁data	-10.3753
▁Los	-10.3764
▁disclosed	-10.3768
▁4	-10.3783
▁August	-10.3795
index	-10.382
▁Mean	-10.3824
▁given	-10.383
▁rules	-10.3833
▁toward	-10.3838
▁along	-10.3849
▁decided	-10.3852
▁His	-10.3864
▁course	-10.3872
▁biggest	-10.3878
▁Financial	-10.3883
▁Oct	-10.3886
▁great	-10.3887
▁place	-10.3892
▁Texaco	-10.39
▁half	-10.391
▁above	-10.3913
▁women	-10.3922
▁something	-10.3956
▁broker	-10.396
▁away	-10.3964
▁labor	-10.3977
▁taken	-10.3979
▁attorney	-10.3984
▁6	-10.3998
▁cases	-10.403
▁Rep	-10.4044
▁Drexel	-10.4049
▁profits	-10.4049
▁staff	-10.4072
▁3/4	-10.4085
▁gains	-10.4102
▁stores	-10.4104
control	-10.4114
▁loan	-10.412
▁lead	-10.4122
▁banking	-10.4131
▁party	-10.4139
▁saying	-10.4147
▁Britain	-10.4179
▁nine	-10.4197
▁name	-10.4204
▁scheduled	-10.426
▁settlement	-10.4264
went	-10.4268
▁head	-10.4273
▁gas	-10.4295
▁Other	-10.43
▁role	-10.4305
▁payments	-10.4314
▁commission	-10.4318
▁Capital	-10.4322
▁run	-10.4334
▁jobs	-10.4339
▁1989	-10.4349
▁interests	-10.4367
▁Richard	-10.4376
▁interview	-10.4378
▁partnership	-10.4392
▁included	-10.4401
▁Angeles	-10.4429
▁banker	-10.4431
▁letter	-10.4448
▁Wednesday	-10.4464
▁meet	-10.4466
▁By	-10.4486
▁black	-10.4493
▁apparent	-10.4501
▁systems	-10.4524
▁Most	-10.4531
▁Sept	-10.4552
▁reports	-10.4554
▁making	-10.4559
side	-10.4575
▁PLC	-10.458
k	-10.4587
▁These	-10.4591
▁Service	-10.461
▁below	-10.4614
▁claim	-10.4622
▁percentage	-10.4624
▁hold	-10.4635
▁9	-10.4638
▁create	-10.465
▁She	-10.4654
▁Judge	-10.4665
▁claims	-10.4669
held	-10.47
▁orders	-10.4712
▁eight	-10.4724
▁David	-10.4727
▁predict	-10.4748
▁Industries	-10.475
▁strategy	-10.4755
than	-10.4757
▁paper	-10.4785
▁currency	-10.4797
▁Democratic	-10.4823
loss	-10.4831
ation	-10.4837
▁continuing	-10.4843
▁effective	-10.4865
▁September	-10.4868
body	-10.4877
▁service	-10.4891
▁turn	-10.4894
▁significant	-10.4906
using	-10.4911
▁Committee	-10.4914
en	-10.4937
having	-10.4951
▁All	-10.4957
▁basis	-10.4976
▁largest	-10.4977
▁joint	-10.4988
▁Morgan	-10.4993
▁dividend	-10.5006
▁French	-10.501
▁join	-10.501
▁subsidiary	-10.5021
▁State	-10.5039
exchange	-10.5114
▁options	-10.5117
▁advertising	-10.5123
▁expand	-10.5159
▁television	-10.5167
▁nuclear	-10.5169
▁mean	-10.5174
ary	-10.5178
▁getting	-10.5194
TV	-10.5206
point	-10.5206
no	-10.5222
▁Shearson	-10.5231
▁Michael	-10.5232
▁maintain	-10.5235
▁strike	-10.5264
▁slightly	-10.5274
▁November	-10.528
▁alleged	-10.5287
▁seems	-10.5307
▁kind	-10.5329
▁leaders	-10.5335
▁leave	-10.5347
▁failed	-10.5385
▁always	-10.5392
▁indicate	-10.5407
▁planned	-10.5408
▁competition	-10.5409
▁launch	-10.5416
▁benefits	-10.5417
▁although	-10.542
▁21	-10.5423
▁ruling	-10.5446
well	-10.5454
▁especial	-10.5458
▁doing	-10.5466
▁call	-10.5469
▁St	-10.5474
▁legislation	-10.5499
be	-10.5501
▁independent	-10.5537
service	-10.5538
free	-10.5547
▁owns	-10.5552
▁done	-10.5568
▁Dukakis	-10.5572
▁limited	-10.5581
▁creditor	-10.5584
water	-10.5584
▁judge	-10.561
▁crash	-10.5619
▁holds	-10.5619
▁estimates	-10.5635
seen	-10.5637
▁airline	-10.5645
ton	-10.5655
▁account	-10.5656
▁survey	-10.566
▁construction	-10.5676
▁22	-10.568
▁Big	-10.5682
▁institutions	-10.5686
▁discount	-10.5694
te	-10.5703
▁election	-10.5707
▁longer	-10.5713
▁venture	-10.5718
▁thought	-10.5746
▁actual	-10.5757
▁parts	-10.5761
▁considered	-10.5767
▁themselves	-10.5773
▁review	-10.5785
▁According	-10.5801
▁plants	-10.5811
▁discuss	-10.5818
▁thing	-10.5819
mong	-10.5819
▁complete	-10.5828
▁Jan	-10.5835
▁East	-10.5858
▁Merrill	-10.5875
▁arms	-10.5877
U	-10.5887
▁closely	-10.5912
▁Chairman	-10.5913
▁Airline	-10.5925
interest	-10.5926
third	-10.5935
▁George	-10.5945
bank	-10.5982
▁performance	-10.6005
▁book	-10.6029
▁shareholder	-10.6035
▁1980	-10.6037
▁February	-10.6039
▁computers	-10.6047
▁heavy	-10.6048
▁magazine	-10.6068
▁negotiation	-10.608
▁means	-10.6084
▁building	-10.6089
▁avoid	-10.6093
▁adds	-10.6119
▁lawyers	-10.6145
services	-10.6151
▁invest	-10.6152
▁exports	-10.6155
page	-10.6159
▁retail	-10.6173
priced	-10.6178
▁huge	-10.6181
▁De	-10.6187
▁argue	-10.6226
▁why	-10.6233
▁Home	-10.6234
▁equity	-10.625
▁24	-10.6265
▁build	-10.6266
▁approach	-10.6268
management	-10.6272
power	-10.6274
▁himself	-10.6298
▁announcement	-10.6301
▁leading	-10.6303
▁pre	-10.6332
▁won	-10.6339
▁Smith	-10.635
▁Reserve	-10.637
▁reduced	-10.6386
▁ask	-10.6391
▁trust	-10.6399
▁matter	-10.6413
▁dispute	-10.6417
▁Justice	-10.6421
▁Democrats	-10.6431
store	-10.6438
▁traded	-10.6446
▁Savings	-10.6459
▁23	-10.6474
▁proceed	-10.6487
▁Since	-10.6489
▁write	-10.6491
▁damage	-10.6494
ism	-10.6499
▁Dec	-10.6526
▁hurt	-10.6527
est	-10.6536
▁evidence	-10.6551
▁hearing	-10.6556
▁individual	-10.6572
ic	-10.6578
level	-10.6593
American	-10.6598
▁idea	-10.6628
per	-10.6628
▁feel	-10.663
▁original	-10.6633
▁benefit	-10.6634
▁partner	-10.6638
▁reserves	-10.6642
▁try	-10.6644
▁me	-10.6646
de	-10.6647
▁request	-10.6656
▁children	-10.6666
▁Dr	-10.667
▁war	-10.6707
▁city	-10.6713
not	-10.6722
▁stay	-10.6738
▁rest	-10.6741
▁required	-10.6749
▁bankruptcy	-10.6749
▁Paul	-10.6754
long	-10.6758
▁separate	-10.6762
▁Business	-10.6765
▁policies	-10.6771
▁accounts	-10.6774
▁26	-10.679
▁retailer	-10.6797
▁Electric	-10.6797
brought	-10.6798
▁dealers	-10.6802
▁200	-10.6805
▁Pacific	-10.6808
▁500	-10.6812
▁tons	-10.6814
▁China	-10.6828
▁anything	-10.6837
▁network	-10.6847
spread	-10.6847
▁regulator	-10.6856
▁response	-10.6864
▁Lynch	-10.6873
▁clients	-10.6891
▁beginning	-10.6891
▁summer	-10.6892
▁fear	-10.6905
▁lawsuit	-10.695
▁session	-10.6978
▁imports	-10.6982
▁areas	-10.7006
▁panel	-10.7009
▁leader	-10.7028
▁signed	-10.7029
▁food	-10.704
▁corporation	-10.7047
changed	-10.705
el	-10.7052
ctivity	-10.7068
▁article	-10.7071
gained	-10.7083
▁push	-10.7088
▁AIDS	-10.7092
▁Chrysler	-10.7094
▁opposition	-10.7114
▁fight	-10.7118
▁forecast	-10.714
quality	-10.7146
▁gave	-10.715
▁bad	-10.7153
▁supply	-10.7164
made	-10.7167
▁line	-10.7167
▁specific	-10.7173
▁shows	-10.7178
▁situation	-10.7182
if	-10.7183
▁bring	-10.7185
▁experience	-10.7189
▁medical	-10.719
all	-10.719
▁bills	-10.721
plus	-10.7232
▁laws	-10.7233
▁Kong	-10.7235
▁savings	-10.7236
▁35	-10.7239
▁prevent	-10.7242
▁Brothers	-10.7242
▁France	-10.7246
ad	-10.7247
▁base	-10.7256
▁area	-10.7257
price	-10.7257
where	-10.7268
▁debentures	-10.7272
▁Analyst	-10.7272
▁conditions	-10.7278
▁form	-10.7285
▁aircraft	-10.7287
ley	-10.7298
▁Standard	-10.7312
▁believes	-10.7313
▁block	-10.7327
▁instance	-10.7362
▁quickly	-10.7362
RC	-10.7364
▁presidential	-10.7389
paying	-10.7393
▁cuts	-10.7431
▁Thursday	-10.7431
▁1/8	-10.7452
▁turned	-10.7453
▁rights	-10.7454
mark	-10.7458
▁cable	-10.7461
▁car	-10.7462
instead	-10.7463
state	-10.7466
▁27	-10.7476
▁buyers	-10.7478
▁hours	-10.7479
▁unchanged	-10.7481
▁comes	-10.7482
▁28	-10.7491
▁confirm	-10.7496
▁entire	-10.7497
▁together	-10.75
▁double	-10.7503
▁expert	-10.7514
▁willing	-10.7528
▁agree	-10.7535
more	-10.7545
▁serious	-10.7547
▁Both	-10.7551
dollar	-10.7557
fund	-10.7563
▁posted	-10.7573
do	-10.7575
V	-10.7577
▁quot	-10.7582
▁portfolio	-10.7589
▁congressional	-10.7592
▁Eastern	-10.7593
cost	-10.7604
▁surge	-10.7611
▁needed	-10.7614
▁factor	-10.7623
▁climb	-10.764
▁behind	-10.7644
▁series	-10.7657
▁export	-10.7658
▁accounting	-10.7658
ham	-10.7674
▁Hong	-10.7674
▁nothing	-10.7676
▁Jr	-10.7704
products	-10.7728
▁Bell	-10.7734
ent	-10.7734
▁estimate	-10.7747
▁free	-10.7752
▁natural	-10.7778
▁narrow	-10.7779
▁award	-10.7783
▁young	-10.7784
▁tell	-10.7792
▁play	-10.7798
g	-10.78
▁conservative	-10.7808
▁makers	-10.7812
▁designed	-10.7818
▁1983	-10.7818
▁conference	-10.7819
▁greater	-10.7826
▁history	-10.7832
▁manufacturing	-10.784
▁ahead	-10.7842
▁smaller	-10.7862
▁team	-10.7864
her	-10.7868
▁various	-10.7893
▁air	-10.7907
ex	-10.791
▁miles	-10.7915
class	-10.7924
▁carry	-10.7925
▁1990	-10.7927
▁appeal	-10.793
le	-10.7934
communications	-10.7939
▁transactions	-10.7945
takeover	-10.7974
▁Sales	-10.7982
▁Journal	-10.7982
▁earned	-10.7994
rights	-10.7996
▁hospital	-10.7996
▁rejected	-10.8004
▁limit	-10.8006
▁rule	-10.8007
▁simply	-10.804
▁questions	-10.8046
▁charged	-10.8063
▁7/8	-10.8064
▁Institute	-10.807
▁lawyer	-10.8095
▁Gen	-10.8099
ending	-10.8104
room	-10.8108
ry	-10.8113
▁nations	-10.8128
▁utility	-10.8133
▁Aug	-10.8164
▁software	-10.8169
▁associate	-10.817
▁sent	-10.8174
▁mid	-10.8179
▁hit	-10.8199
hour	-10.8214
like	-10.8215
▁3/8	-10.8226
▁consumers	-10.8227
▁Supreme	-10.8246
▁impact	-10.8274
▁Fund	-10.8301
known	-10.8304
▁technology	-10.8306
▁Investor	-10.8308
▁Salomon	-10.8321
f	-10.8323
LC	-10.8333
▁majority	-10.8341
▁surplus	-10.8341
▁allowed	-10.8341
▁Mexico	-10.8344
▁Dallas	-10.8353
▁battle	-10.8354
▁Thomas	-10.836
▁accord	-10.837
▁projects	-10.8404
▁Republican	-10.8416
▁rally	-10.8417
▁spokeswom	-10.8419
▁spent	-10.8427
▁parent	-10.8435
▁balance	-10.8435
▁usually	-10.8439
▁Brazil	-10.8449
▁purchased	-10.8451
▁Lehman	-10.8453
▁goods	-10.8459
▁advance	-10.8476
▁margin	-10.8482
▁80	-10.8484
▁People	-10.8497
▁spend	-10.8505
▁favor	-10.8511
▁retain	-10.8512
▁steel	-10.8513
▁counsel	-10.8516
▁present	-10.8553
▁looking	-10.8577
▁Florida	-10.8578
giving	-10.8586
▁Still	-10.8597
▁fees	-10.86
▁operation	-10.8614
▁acquisitions	-10.862
▁principal	-10.8623
▁rumor	-10.8635
▁worked	-10.8637
▁Central	-10.8641
▁chain	-10.8669
▁lack	-10.8678
▁5/8	-10.869
▁popular	-10.869
▁view	-10.8697
▁brokerage	-10.8706
▁growing	-10.872
▁forced	-10.8728
adjusted	-10.874
▁list	-10.8745
▁press	-10.8758
▁1982	-10.8794
▁Such	-10.8806
▁success	-10.8807
▁Insurance	-10.881
▁newspaper	-10.8818
bond	-10.8818
▁light	-10.882
▁Party	-10.8825
▁Commerce	-10.8832
▁space	-10.8841
▁promise	-10.8843
▁pension	-10.8844
▁activities	-10.8849
▁expansion	-10.8849
▁minister	-10.8854
▁obtain	-10.8873
▁Also	-10.8879
me	-10.8879
▁break	-10.8882
▁known	-10.8904
▁relatively	-10.8905
un	-10.8906
▁Security	-10.8924
▁energy	-10.8926
art	-10.8933
▁auction	-10.8934
▁attention	-10.8936
▁whole	-10.8939
▁rising	-10.8947
car	-10.8954
▁Baker	-10.8963
▁adopt	-10.8969
▁secretary	-10.8979
▁Houston	-10.9025
▁parties	-10.9026
▁death	-10.9038
▁talk	-10.9053
▁leveraged	-10.908
▁act	-10.9083
▁partly	-10.9088
fire	-10.909
▁Secretary	-10.9093
▁Revenue	-10.9095
▁closing	-10.9096
▁70	-10.9134
▁carrier	-10.9138
▁poor	-10.9142
▁students	-10.9146
▁Separate	-10.9148
▁substantial	-10.9149
▁debate	-10.9153
▁Continental	-10.9168
▁requirement	-10.9176
▁delay	-10.9177
▁telephone	-10.9178
▁across	-10.9189
▁develop	-10.9205
▁police	-10.9206
▁property	-10.9229
▁protect	-10.9231
▁hotel	-10.9232
▁Moody	-10.9246
▁existing	-10.9249
▁prospect	-10.9255
▁human	-10.9257
▁challenge	-10.927
▁alternative	-10.9272
▁Ohio	-10.928
▁Services	-10.9297
▁civil	-10.9308
cutting	-10.9317
▁tried	-10.9326
controlled	-10.9326
▁strength	-10.9338
▁criminal	-10.9355
▁professional	-10.9361
cited	-10.9367
▁Charles	-10.9388
▁Stanley	-10.9391
▁managing	-10.9394
▁Energy	-10.9403
▁expenses	-10.9403
▁Minister	-10.9405
expected	-10.9407
▁step	-10.9408
▁Francisco	-10.9411
▁highly	-10.9412
growing	-10.9417
▁Gulf	-10.942
▁improve	-10.9444
▁Korea	-10.9446
▁community	-10.9467
▁complaint	-10.9469
▁forces	-10.9473
▁fair	-10.9477
▁resigned	-10.9484
town	-10.9487
▁offers	-10.949
▁attack	-10.9491
▁watch	-10.9513
issue	-10.9519
▁positions	-10.9533
ling	-10.9534
▁Motor	-10.9543
▁output	-10.9545
▁chance	-10.9547
▁fixed	-10.9548
▁let	-10.9558
▁hostile	-10.957
▁mostly	-10.9576
▁electronic	-10.9591
interested	-10.9594
▁perhaps	-10.9597
▁hand	-10.9597
how	-10.9602
▁Chemical	-10.9611
▁equal	-10.9626
▁patients	-10.9629
▁speculation	-10.9634
passed	-10.9636
▁widely	-10.9638
▁provision	-10.9671
▁Management	-10.9678
▁expectation	-10.9679
▁holdings	-10.9682
▁larger	-10.9688
▁stop	-10.9696
▁flow	-10.97
▁cover	-10.9711
▁eventual	-10.9715
▁purchases	-10.972
▁travel	-10.9725
ment	-10.9732
▁advantage	-10.9734
▁Soviets	-10.9738
nother	-10.9742
▁convertible	-10.9752
▁basic	-10.9764
▁30-	-10.9775
▁de	-10.9802
▁creat	-10.9809
▁partners	-10.9809
▁Navy	-10.9812
am	-10.9826
▁sought	-10.9837
▁learn	-10.9842
▁recession	-10.9848
▁express	-10.9851
ance	-10.9852
backed	-10.9855
▁reform	-10.9864
▁Oil	-10.9872
▁Johnson	-10.9873
industry	-10.99
▁Am	-10.991
▁exceed	-10.9911
▁protection	-10.9919
air	-10.9919
▁successful	-10.9923
▁phone	-10.9929
▁Southern	-10.9931
▁version	-10.9939
▁29	-10.9943
ard	-10.9956
▁Class	-10.9969
▁illegal	-10.998
▁Peter	-10.9981
▁Computer	-10.999
right	-10.9992
▁chemical	-11.0006
▁drugs	-11.0008
▁Trust	-11.0016
▁Col	-11.0018
▁Systems	-11.0019
▁package	-11.0027
▁overall	-11.0032
▁agent	-11.0039
▁AT	-11.0043
▁player	-11.0044
z	-11.0055
▁commitment	-11.0078
▁announce	-11.0084
▁Mass	-11.0094
▁Trade	-11.0095
▁jumped	-11.011
-1	-11.012
▁per	-11.0126
▁regional	-11.0127
▁controls	-11.0133
▁threat	-11.0157
▁45	-11.0164
▁technical	-11.0172
▁Labor	-11.018
▁Citicorp	-11.0195
▁influence	-11.02
▁sure	-11.0218
▁daily	-11.0224
▁Industrial	-11.0226
gas	-11.0227
food	-11.0247
▁fast	-11.0251
▁note	-11.0254
▁doctor	-11.0254
▁150	-11.0284
▁Center	-11.0292
▁sign	-11.0301
▁slow	-11.0313
▁Administration	-11.0314
▁aggressive	-11.0339
▁intend	-11.0352
▁employee	-11.0354
▁pact	-11.0362
▁Prime	-11.0365
▁traditional	-11.0366
▁rival	-11.0373
takes	-11.0377
▁details	-11.0377
▁Sun	-11.0378
ecause	-11.0389
▁region	-11.039
▁hands	-11.0395
▁regulatory	-11.0395
▁Investment	-11.0396
▁focus	-11.0398
▁attract	-11.0405
Contra	-11.041
▁decide	-11.0415
▁violation	-11.0425
▁Ro	-11.0435
▁minimum	-11.0443
▁import	-11.0447
▁consultant	-11.0453
▁proposals	-11.0454
▁wanted	-11.0463
▁300	-11.0466
ous	-11.0467
▁security	-11.0468
▁Gorbachev	-11.048
▁immediately	-11.0482
▁lines	-11.0484
▁agencies	-11.0492
▁doubt	-11.0493
▁beyond	-11.0497
▁capacity	-11.0499
▁prompt	-11.0508
▁regard	-11.0517
▁Nov	-11.0522
▁actions	-11.053
▁rating	-11.0533
▁denied	-11.0539
▁concerned	-11.0546
▁employer	-11.0552
▁grant	-11.0559
▁sense	-11.0562
▁unusual	-11.0565
▁standards	-11.059
▁familiar	-11.059
court	-11.0616
truck	-11.0617
▁Yesterday	-11.0623
▁Loan	-11.0649
▁giant	-11.0658
ner	-11.0665
▁numbers	-11.0667
▁grow	-11.0671
▁improvement	-11.0673
▁Two	-11.0675
▁source	-11.0701
▁running	-11.0702
▁grew	-11.0707
con	-11.0711
▁Petroleum	-11.0714
▁Motors	-11.0731
▁facilities	-11.0731
▁Associate	-11.0737
▁reasons	-11.0737
▁Pa	-11.0739
▁Its	-11.0745
▁quarterly	-11.0747
5,000	-11.0757
▁depend	-11.0761
▁prime	-11.0765
ship	-11.0767
▁plane	-11.0774
▁mutual	-11.0788
▁date	-11.0792
▁encourage	-11.0815
▁social	-11.082
▁Not	-11.0825
▁necessary	-11.0857
insurance	-11.0862
▁Force	-11.0863
▁payment	-11.0873
▁Power	-11.0875
▁access	-11.0881
▁discover	-11.0895
▁Thos	-11.0895
▁Then	-11.0896
some	-11.0898
▁complex	-11.0908
▁broad	-11.0929
▁Feb	-11.0931
▁propose	-11.0931
▁person	-11.0944
▁provid	-11.0953
school	-11.0954
▁candidates	-11.0962
25	-11.0962
▁adding	-11.0973
▁Hutton	-11.0978
▁heart	-11.098
▁opinion	-11.0983
▁Boeing	-11.0988
ive	-11.1009
▁restaurant	-11.1012
wood	-11.102
▁1.5	-11.1027
volving	-11.1028
▁pence	-11.1029
▁Africa	-11.103
▁Yet	-11.1043
▁institutional	-11.1049
stead	-11.1055
▁thousand	-11.1056
▁distribution	-11.106
▁Health	-11.1062
▁models	-11.1067
▁improved	-11.1072
▁1981	-11.1076
▁goes	-11.1078
dustries	-11.1085
▁Toronto	-11.1096
▁Act	-11.1103
▁else	-11.1103
style	-11.1109
▁typical	-11.111
▁sometimes	-11.112
▁Finance	-11.112
▁advanced	-11.1126
▁candidate	-11.1142
▁Moscow	-11.1151
▁speech	-11.116
▁insider	-11.1169
▁Of	-11.117
▁spot	-11.1182
▁night	-11.1194
▁Defense	-11.1197
▁signal	-11.12
ar	-11.1209
▁News	-11.1215
▁progress	-11.1216
▁standard	-11.1222
II	-11.1235
▁Post	-11.1241
▁self	-11.1243
yield	-11.1248
▁adviser	-11.1254
▁Jackson	-11.1259
▁Research	-11.126
▁subordinated	-11.1269
▁opportunity	-11.127
▁Goldman	-11.1274
▁reporter	-11.1275
▁moderate	-11.1307
▁Jersey	-11.1309
50	-11.1319
going	-11.1325
▁agreements	-11.133
▁England	-11.133
▁add	-11.1336
▁Price	-11.1339
action	-11.1346
▁indicat	-11.1347
▁finding	-11.1349
▁formed	-11.1358
tood	-11.1364
technology	-11.1374
▁publisher	-11.1381
ties	-11.1383
▁option	-11.1387
▁spring	-11.1416
ities	-11.1427
▁jury	-11.1445
▁primari	-11.1446
▁prove	-11.1447
so	-11.1459
▁1970	-11.1463
▁expensive	-11.1486
▁size	-11.1508
▁Pentagon	-11.1508
▁Manhattan	-11.1522
▁story	-11.1527
▁unlike	-11.1531
▁competitors	-11.1538
▁weekend	-11.155
▁offices	-11.1565
▁respond	-11.1565
▁Conn	-11.1566
▁movement	-11.1574
▁win	-11.1585
▁Credit	-11.1588
▁IRS	-11.159
▁individuals	-11.1598
▁Swiss	-11.1604
▁combined	-11.1606
▁authority	-11.1608
▁contain	-11.1608
▁customer	-11.1615
▁trouble	-11.1615
▁Martin	-11.1633
run	-11.1638
▁developing	-11.1638
▁manufacturers	-11.1655
▁quite	-11.1677
▁weapons	-11.168
▁appeals	-11.1683
▁planning	-11.1689
▁Dur	-11.1692
▁weak	-11.1695
▁thus	-11.17
▁Paris	-11.1701
selling	-11.1703
▁trial	-11.1704
▁Joseph	-11.1705
▁contend	-11.1707
business	-11.1708
▁12.5	-11.1708
▁replace	-11.1715
placed	-11.173
policy	-11.1737
voted	-11.1742
▁relationship	-11.1745
▁Santa	-11.1749
dealer	-11.1756
▁possibility	-11.1767
▁overseas	-11.177
▁wrong	-11.1772
▁oppose	-11.1773
▁stations	-11.1777
▁met	-11.1785
▁War	-11.1789
▁involve	-11.1798
▁factors	-11.1798
▁crude	-11.1799
▁Pan	-11.1804
coming	-11.1805
▁attend	-11.1806
▁representative	-11.1809
▁anyone	-11.1824
▁About	-11.1825
Warner	-11.1825
makers	-11.1845
▁Though	-11.1846
▁Holdings	-11.1851
▁generate	-11.1855
▁safety	-11.186
▁airlines	-11.1867
chip	-11.1873
▁Mrs	-11.1875
▁passenger	-11.1884
reduction	-11.1886
▁primary	-11.189
red	-11.1892
kept	-11.1894
ting	-11.1898
▁organization	-11.1898
▁Gold	-11.1911
▁portion	-11.1917
▁normal	-11.1926
▁junk	-11.1931
▁competitive	-11.1935
▁affect	-11.1936
▁couple	-11.1945
card	-11.195
▁coming	-11.1957
set	-11.1961
▁Burn	-11.1963
75	-11.1974
▁active	-11.1976
▁district	-11.1978
▁restriction	-11.1979
▁save	-11.2003
▁internal	-11.2003
1,000	-11.2005
▁Saturday	-11.2016
▁CBS	-11.2018
▁film	-11.2018
▁middle	-11.2023
▁soar	-11.2024
nation	-11.2029
▁white	-11.203
▁Mo	-11.2037
▁Re	-11.2039
w	-11.204
▁opening	-11.204
▁Massachusetts	-11.2042
rich	-11.2046
90	-11.2047
▁tough	-11.2054
▁machines	-11.2054
▁answer	-11.2064
▁voters	-11.2069
▁highest	-11.2079
▁---	-11.2079
▁Data	-11.2085
▁prepared	-11.2088
▁true	-11.2102
▁provisions	-11.2105
▁Australian	-11.2107
▁tomorrow	-11.2117
▁college	-11.214
▁warrant	-11.2141
▁decisions	-11.2151
▁crisis	-11.2151
trade	-11.2155
ran	-11.2158
▁shift	-11.2159
▁asset	-11.2161
▁ruled	-11.2167
▁records	-11.2174
gains	-11.2181
▁corn	-11.2187
▁disclose	-11.2193
▁positive	-11.2197
▁movie	-11.2203
ro	-11.2206
▁negative	-11.2208
ma	-11.2216
▁trend	-11.2223
▁Frank	-11.2225
sponsor	-11.2234
▁falling	-11.2238
appeared	-11.2261
war	-11.2262
▁Inde	-11.2266
▁population	-11.2282
▁modest	-11.2284
▁properties	-11.2284
▁equivalent	-11.2285
▁ways	-11.2288
▁documents	-11.2296
▁ads	-11.2297
▁75	-11.2308
▁practice	-11.2329
▁leadership	-11.2345
▁morning	-11.2346
▁Times	-11.236
▁image	-11.2364
▁professor	-11.2365
can	-11.2375
▁10-	-11.238
▁delivery	-11.2384
▁Korean	-11.2386
▁missiles	-11.2387
▁underwriter	-11.2388
▁Poor	-11.2391
▁ratings	-11.2394
▁elect	-11.2395
▁Trader	-11.2395
▁supplies	-11.2403
▁Columbia	-11.2448
▁municipal	-11.2449
▁peace	-11.2451
▁owners	-11.2467
▁ordered	-11.2469
life	-11.2486
▁starting	-11.249
h	-11.2492
▁Saudi	-11.2504
West	-11.2505
▁alone	-11.2507
profit	-11.2512
▁publicly	-11.2512
▁decade	-11.2512
▁fears	-11.2515
equity	-11.2524
crash	-11.2524
▁structure	-11.2538
▁conduct	-11.2543
▁monetary	-11.2545
▁Lee	-11.2557
▁insist	-11.2557
▁game	-11.258
▁Un	-11.2584
▁begun	-11.2602
gets	-11.2604
worth	-11.2606
▁farmers	-11.2607
▁contrast	-11.2607
▁protest	-11.2608
▁insurer	-11.2615
▁Public	-11.2618
▁warn	-11.2619
▁showing	-11.2619
▁child	-11.2629
▁Israel	-11.2643
▁employment	-11.2644
▁understand	-11.2646
upon	-11.2663
▁facilit	-11.267
▁key	-11.2674
▁failure	-11.2681
▁headquarter	-11.2688
▁prior	-11.2693
citie	-11.2705
▁education	-11.2716
loan	-11.2718
setting	-11.2729
▁editor	-11.2738
▁Edward	-11.274
▁francs	-11.274
▁Express	-11.2748
▁connection	-11.2753
▁90	-11.2756
▁difference	-11.2757
▁Chapter	-11.2757
▁Our	-11.2757
▁borrowing	-11.2759
▁moving	-11.277
▁frequent	-11.2773
▁unemployment	-11.2777
▁deposits	-11.2781
▁32	-11.2793
▁Philadelphia	-11.2793
▁fundamental	-11.2797
com	-11.2804
▁school	-11.2806
▁everything	-11.2822
▁impose	-11.2823
▁message	-11.2826
▁live	-11.2834
▁Development	-11.2846
▁center	-11.2865
unions	-11.2875
▁Mich	-11.288
headed	-11.288
▁worry	-11.2886
▁stand	-11.2892
ine	-11.2895
▁Gas	-11.2904
▁rough	-11.2907
▁politics	-11.2914
▁responsibl	-11.2914
▁whom	-11.292
banking	-11.2932
▁status	-11.2946
▁ground	-11.2947
▁vehicles	-11.2948
talking	-11.2953
▁Official	-11.2972
▁Today	-11.2972
▁discussions	-11.2981
century	-11.2984
▁extreme	-11.2988
▁season	-11.2992
▁visit	-11.2994
▁acknowledge	-11.3
▁goal	-11.3008
▁formal	-11.302
▁Council	-11.3025
▁deep	-11.3031
▁declared	-11.3032
▁Nasdaq	-11.3033
▁treatment	-11.304
low	-11.3049
lo	-11.3055
▁electronics	-11.3061
ably	-11.3065
2,000	-11.3066
▁Brown	-11.3069
▁Office	-11.3071
▁attractive	-11.3073
systems	-11.3075
▁Ministry	-11.3079
▁secret	-11.3086
▁principle	-11.3094
▁Boesky	-11.3101
▁works	-11.3111
▁schools	-11.3112
▁34	-11.3113
▁split	-11.3115
▁mind	-11.3115
▁housing	-11.312
▁contractor	-11.3123
cut	-11.3126
▁Thu	-11.3132
▁items	-11.314
▁mixed	-11.3141
▁pending	-11.3144
▁task	-11.3145
▁Stores	-11.3147
▁pace	-11.3153
ist	-11.3159
▁Australia	-11.3161
▁signs	-11.3162
everal	-11.3167
▁newly	-11.3172
foot	-11.3177
▁manage	-11.318
▁OPEC	-11.3186
▁leaving	-11.3187
▁55	-11.3191
▁significantly	-11.3196
▁steps	-11.3198
▁Campeau	-11.3199
▁disease	-11.3204
▁amid	-11.3205
▁fine	-11.3208
▁lose	-11.3225
▁extended	-11.3228
▁assistant	-11.3237
▁regulations	-11.3239
▁developer	-11.3245
▁refus	-11.3254
▁plunge	-11.3255
▁purposes	-11.3257
▁troubled	-11.3258
▁resources	-11.326
▁heavily	-11.3271
▁scandal	-11.3275
▁machine	-11.3285
▁powerful	-11.3285
▁FDA	-11.3292
▁emerge	-11.3298
▁reorganization	-11.3305
ch	-11.3305
producing	-11.3309
drug	-11.3309
risk	-11.3321
▁radio	-11.3323
▁design	-11.3333
type	-11.3337
▁easy	-11.3343
▁strengthen	-11.3352
1.8	-11.3357
▁Sunday	-11.3357
▁built	-11.3358
▁direction	-11.3361
▁extend	-11.3365
▁chemicals	-11.3366
▁100,000	-11.3373
▁seats	-11.3373
▁shipment	-11.3376
▁specialty	-11.3394
▁transportation	-11.3401
▁severe	-11.3406
▁lawmaker	-11.3408
waiting	-11.3409
▁42	-11.3409
▁System	-11.3415
▁prosecutor	-11.3428
▁farm	-11.343
▁arrangement	-11.3432
▁declines	-11.3445
▁400	-11.3449
▁Atlanta	-11.3452
▁remained	-11.3454
▁families	-11.3467
1.4	-11.348
▁values	-11.3492
▁returns	-11.3499
▁nor	-11.3502
▁Pennzoil	-11.3512
▁Prudential	-11.3518
▁Louis	-11.3523
▁King	-11.3525
▁affiliate	-11.3529
▁stronger	-11.3533
▁utilities	-11.3536
▁minority	-11.3537
ud	-11.3541
▁barrels	-11.3553
election	-11.3562
▁suffer	-11.3571
▁fraud	-11.3581
▁ultimate	-11.3583
,000	-11.3599
▁killed	-11.3602
▁Republicans	-11.3602
▁via	-11.3604
served	-11.3617
▁substantially	-11.3623
▁carrie	-11.3625
▁regular	-11.3628
▁feet	-11.363
▁ownership	-11.3644
▁Iranian	-11.3645
forward	-11.3648
▁preliminary	-11.3649
▁bit	-11.3656
▁reduction	-11.3663
▁offset	-11.3668
▁determine	-11.3671
▁Partners	-11.3685
▁send	-11.3687
▁Life	-11.3694
▁handle	-11.3702
▁material	-11.3713
▁liberal	-11.3723
▁editorial	-11.3725
▁politician	-11.3728
▁My	-11.3733
▁38	-11.3744
▁currencies	-11.3746
▁wrote	-11.3755
▁floor	-11.3757
▁pretax	-11.3765
▁Fla	-11.3767
▁elaborate	-11.3782
-2	-11.3788
▁pull	-11.3817
▁Contras	-11.3817
▁Army	-11.3818
▁association	-11.382
▁revis	-11.3824
company	-11.3828
▁Foreign	-11.3834
▁dealing	-11.3835
▁51	-11.3842
▁model	-11.3846
▁fewer	-11.3851
▁conventional	-11.3852
▁County	-11.3859
▁lending	-11.386
night	-11.3869
▁buyer	-11.3879
▁fully	-11.3893
▁contribut	-11.3895
▁statements	-11.3898
▁everyone	-11.39
▁voting	-11.3902
▁flight	-11.3921
▁33	-11.3921
▁picture	-11.3923
finance	-11.3927
hired	-11.395
processing	-11.3951
▁monthly	-11.3954
▁abroad	-11.3955
▁Industry	-11.3956
sure	-11.3961
tic	-11.3962
▁Black	-11.3964
▁contact	-11.3965
mid	-11.3965
▁except	-11.3966
▁250	-11.3974
▁confidence	-11.3975
head	-11.3982
▁Steel	-11.3982
▁accused	-11.3985
▁prison	-11.3986
ier	-11.3989
▁suspend	-11.4006
li	-11.4009
▁saw	-11.4009
berg	-11.4022
▁Average	-11.4025
▁African	-11.4032
▁44	-11.4033
▁throughout	-11.4043
▁Chinese	-11.4047
▁authorit	-11.4048
▁Term	-11.4048
▁soft	-11.4052
▁inquir	-11.4058
▁repeated	-11.4063
▁gross	-11.4065
▁Gov	-11.4066
▁annually	-11.4068
▁Apple	-11.4069
▁introduc	-11.4072
▁inside	-11.4092
sector	-11.4096
▁slipp	-11.4101
▁governments	-11.4102
▁serve	-11.4106
▁sort	-11.4108
▁outlook	-11.412
▁Earlier	-11.4124
▁front	-11.4124
▁father	-11.4124
▁pro	-11.4126
▁compare	-11.4126
caus	-11.4128
▁courts	-11.413
▁choice	-11.4132
▁convince	-11.4133
authorized	-11.4137
▁compete	-11.414
▁blue	-11.4149
▁retirement	-11.415
▁materials	-11.4151
▁pretty	-11.4161
▁Kidder	-11.4166
▁reduc	-11.4167
▁books	-11.4171
▁disclosure	-11.418
▁station	-11.4183
um	-11.4185
▁Great	-11.4189
▁Messrs	-11.4193
win	-11.4194
▁knew	-11.4203
▁music	-11.421
1.6	-11.4227
▁guilty	-11.4231
▁Sachs	-11.4244
▁affected	-11.4246
▁felt	-11.4255
▁Market	-11.4257
▁brief	-11.4257
▁critics	-11.4258
▁aerospace	-11.4263
▁Here	-11.427
▁36	-11.427
▁permit	-11.4278
▁settle	-11.4281
▁settled	-11.4284
mo	-11.4284
▁strategic	-11.4286
▁negotiat	-11.4287
fell	-11.4292
▁wife	-11.4293
▁moment	-11.4305
3.5	-11.4309
▁grand	-11.431
▁From	-11.4314
▁somewhat	-11.4319
▁brand	-11.4332
▁word	-11.4332
▁arrest	-11.4334
▁events	-11.4334
▁wage	-11.4341
ty	-11.4348
▁responsibility	-11.4351
suits	-11.4353
▁pound	-11.4354
▁rebound	-11.4357
mile	-11.4358
▁Carl	-11.4366
▁becoming	-11.4373
▁intended	-11.4375
▁Wright	-11.4376
▁OTC	-11.438
▁quiet	-11.4385
.875	-11.4393
▁immediate	-11.4416
▁commodity	-11.442
▁litigation	-11.4421
▁played	-11.4423
▁global	-11.4435
▁bigger	-11.4437
▁Irving	-11.4456
missile	-11.4456
▁Allied	-11.4461
▁testing	-11.4463
▁Their	-11.4467
▁victory	-11.4485
la	-11.4485
▁Ronald	-11.4489
appointed	-11.4491
rs	-11.4503
▁Miami	-11.4508
▁practices	-11.4525
ney	-11.4526
▁Resources	-11.4541
▁worth	-11.4554
▁sides	-11.4565
▁Atlantic	-11.4573
▁wait	-11.4592
piece	-11.4595
▁Mexican	-11.4606
▁friends	-11.4608
▁patent	-11.4609
language	-11.4614
▁participant	-11.4621
▁recommendation	-11.4625
Canada	-11.4635
▁veto	-11.4638
▁effects	-11.4639
▁allegation	-11.4639
▁operator	-11.4641
▁Du	-11.4642
▁pilots	-11.4643
▁realize	-11.4645
▁remove	-11.4648
door	-11.4656
▁runs	-11.4658
▁Fe	-11.4659
▁65	-11.4664
▁Young	-11.4672
▁determined	-11.4673
▁Taiwan	-11.4676
▁Three	-11.4676
▁audience	-11.4696
▁exact	-11.4709
▁Jack	-11.471
▁twice	-11.471
▁testimony	-11.471
▁read	-11.4711
▁flat	-11.4722
▁acquir	-11.4728
▁deliver	-11.4734
▁combination	-11.474
scale	-11.4753
▁Carter	-11.4759
▁enter	-11.476
▁Donald	-11.4766
▁pushed	-11.4766
uses	-11.4768
▁premium	-11.4785
▁reaction	-11.4786
▁symbol	-11.4792
▁blood	-11.4794
▁defend	-11.4804
support	-11.4808
▁39	-11.4809
▁compet	-11.4832
▁race	-11.484
▁expire	-11.4841
▁trigger	-11.485
▁Park	-11.485
▁parents	-11.4852
▁apply	-11.4853
▁Miller	-11.4854
speed	-11.4859
▁deposit	-11.4862
ted	-11.4862
▁described	-11.4868
retired	-11.4869
▁bidding	-11.4871
▁recognize	-11.4877
▁establish	-11.4878
▁extra	-11.488
equipment	-11.4885
Soviet	-11.4887
▁ready	-11.4888
▁triple	-11.4892
▁calling	-11.4896
▁sector	-11.4899
▁consulting	-11.4916
▁governor	-11.4931
▁putt	-11.4938
▁Before	-11.4942
▁Third	-11.4942
▁wonder	-11.4942
▁halt	-11.4955
▁identify	-11.4957
▁Kodak	-11.4957
▁assume	-11.496
▁words	-11.4961
▁Guinness	-11.4964
engine	-11.4968
▁publishing	-11.497
▁exercise	-11.497
▁names	-11.4971
▁achieve	-11.4972
▁Like	-11.4972
▁attorneys	-11.4982
▁limits	-11.4996
▁pursue	-11.4997
▁lenders	-11.4997
▁possibly	-11.5002
▁antitrust	-11.5002
key	-11.5005
▁living	-11.5023
▁criticism	-11.5026
▁proxy	-11.5027
▁airport	-11.503
▁Long	-11.5032
▁attribut	-11.5036
▁contribute	-11.5036
▁Sears	-11.5043
▁media	-11.5047
▁Ill	-11.5057
▁weakness	-11.5058
▁lives	-11.5059
▁sudden	-11.5067
▁introduce	-11.5069
▁Agency	-11.5072
▁Meese	-11.5072
▁temporary	-11.5077
▁approve	-11.5081
▁fuel	-11.5082
rated	-11.5085
▁merge	-11.5087
due	-11.509
▁engineering	-11.5095
losing	-11.51
▁fee	-11.5106
imed	-11.5109
▁knows	-11.511
▁society	-11.5113
▁exchanges	-11.5114
▁Italy	-11.5123
▁coverage	-11.5124
▁mention	-11.5124
▁contest	-11.5128
▁railroad	-11.5139
▁defendant	-11.5152
▁select	-11.5159
▁membership	-11.5159
home	-11.516
▁obligation	-11.5161
family	-11.5172
▁established	-11.5175
ac	-11.518
▁Morris	-11.5187
net	-11.5188
Z	-11.5194
▁rare	-11.5194
▁Volume	-11.5205
▁none	-11.5206
building	-11.5207
▁pick	-11.5208
▁funding	-11.5214
▁gone	-11.5215
▁faster	-11.5217
▁Icahn	-11.5225
▁Iowa	-11.5225
▁schedule	-11.5234
▁semiconductor	-11.5235
▁Philip	-11.5241
▁Alan	-11.5243
▁obvious	-11.5246
▁ones	-11.5248
▁Mon	-11.5259
▁Communications	-11.5261
▁woman	-11.5266
▁essential	-11.5266
▁consist	-11.5267
▁accident	-11.5277
▁intervention	-11.528
▁homes	-11.5283
▁critical	-11.529
▁Kennedy	-11.5292
▁indictment	-11.5293
▁collect	-11.5298
▁Latin	-11.5302
▁compromise	-11.5307
▁studies	-11.5314
▁El	-11.5314
▁explain	-11.5314
▁quota	-11.5317
▁37	-11.532
3,000	-11.5323
▁AG	-11.5323
▁conflict	-11.5335
▁PaineWebber	-11.5339
▁Medical	-11.5339
▁client	-11.5344
▁investigat	-11.5359
▁Manufacturers	-11.5359
our	-11.537
▁drive	-11.5371
supply	-11.5373
▁refuse	-11.5374
▁hot	-11.5379
▁Time	-11.5403
ey	-11.5403
▁stage	-11.5403
▁finished	-11.5403
government	-11.5405
▁identifi	-11.5411
▁license	-11.5419
▁notice	-11.5421
▁neither	-11.543
▁declining	-11.5432
▁trades	-11.5438
▁inventories	-11.5439
▁treaty	-11.5442
▁Detroit	-11.5443
▁46	-11.5444
▁Bureau	-11.5458
fashion	-11.5468
raising	-11.5474
▁bidder	-11.5476
2.8	-11.5495
▁minutes	-11.5501
2.2	-11.5512
▁employ	-11.5524
▁enjoy	-11.5527
▁happen	-11.5531
sells	-11.5532
maker	-11.5542
▁fare	-11.5543
▁dividends	-11.5557
▁mere	-11.5558
▁address	-11.5559
view	-11.556
▁School	-11.5564
▁networks	-11.5566
▁widen	-11.5567
4.5	-11.5577
▁relations	-11.5584
assistance	-11.5593
▁Howard	-11.5602
▁asking	-11.5606
▁heard	-11.5607
os	-11.561
star	-11.5614
kin	-11.5615
▁Singapore	-11.5617
▁La	-11.5622
▁supposed	-11.5624
▁argu	-11.5641
▁publish	-11.5646
▁distribute	-11.5659
▁owner	-11.5662
▁Merc	-11.5668
▁died	-11.5676
▁character	-11.5677
▁returned	-11.5678
▁coal	-11.5683
▁simple	-11.5684
▁friendly	-11.5688
▁1979	-11.569
▁Switzerland	-11.5697
▁worried	-11.5707
▁chose	-11.5708
▁pattern	-11.5708
66	-11.5719
goods	-11.5722
▁collapse	-11.5728
▁track	-11.5729
▁cancer	-11.5734
▁concede	-11.5735
▁sports	-11.5735
▁tend	-11.5737
▁voice	-11.5737
▁event	-11.5739
▁comparable	-11.5742
▁eliminate	-11.5744
▁ideas	-11.5752
▁indication	-11.5753
account	-11.5754
▁weaken	-11.5756
▁Organization	-11.5757
▁environmental	-11.5763
party	-11.5766
▁perform	-11.5769
Star	-11.5776
1.9	-11.5776
▁redeem	-11.5777
▁worst	-11.5781
▁43	-11.5782
▁soybean	-11.5784
▁troops	-11.579
▁Do	-11.5792
▁sound	-11.5795
▁Sea	-11.5795
▁Douglas	-11.5796
▁suspect	-11.5796
▁Cos	-11.5798
▁pass	-11.58
▁dozen	-11.5802
▁expanded	-11.5803
▁proceedings	-11.5811
▁Social	-11.5816
core	-11.582
▁amendment	-11.5822
▁easier	-11.5834
▁Kansas	-11.5855
ill	-11.5855
▁Or	-11.5866
▁Markets	-11.5867
▁environment	-11.5887
▁Over	-11.5888
▁deals	-11.5894
fat	-11.5896
▁career	-11.5898
▁worse	-11.5899
wanted	-11.5901
▁matters	-11.5902
▁Consumer	-11.5904
/32	-11.591
relations	-11.5911
▁adjustment	-11.5916
deed	-11.5921
▁1992	-11.5929
citing	-11.5931
▁excess	-11.5931
▁hundreds	-11.5931
die	-11.5936
▁Arab	-11.5937
▁47	-11.5938
▁rebel	-11.5943
▁appropriate	-11.5947
La	-11.5952
▁developed	-11.5954
que	-11.5966
7.5	-11.5971
▁instrument	-11.5977
ter	-11.5978
city	-11.5989
▁pipeline	-11.5998
▁reserve	-11.6004
▁Economic	-11.601
▁centers	-11.6013
▁surprised	-11.6014
▁search	-11.6015
der	-11.6018
▁chips	-11.6019
▁investigators	-11.6021
▁renew	-11.6025
ur	-11.6026
generation	-11.6027
▁researchers	-11.6033
▁score	-11.6034
▁concluded	-11.6035
energy	-11.604
▁walk	-11.6042
95	-11.6042
mont	-11.6044
▁relative	-11.6047
▁count	-11.6082
recommended	-11.6085
▁Digital	-11.6087
▁tactic	-11.6089
eries	-11.6093
▁treat	-11.6094
▁views	-11.6094
▁Harris	-11.6103
▁GOP	-11.6103
▁lowest	-11.6105
▁ban	-11.6113
▁hear	-11.6118
▁opportunit	-11.6124
▁traffic	-11.613
▁48	-11.6131
contract	-11.6135
▁Grand	-11.6137
▁Italian	-11.6147
▁ensure	-11.6148
▁Law	-11.6149
Communications	-11.616
▁older	-11.6164
▁Banker	-11.6167
▁easi	-11.6172
▁Delaware	-11.6176
di	-11.618
▁Technology	-11.6181
▁remark	-11.6181
▁metric	-11.6182
▁factory	-11.6187
▁correct	-11.6191
▁Federated	-11.6191
▁shortage	-11.6199
v	-11.62
▁slump	-11.6201
▁happened	-11.6204
▁colleague	-11.621
▁proper	-11.6216
▁respect	-11.622
id	-11.622
▁deputy	-11.6239
stability	-11.6241
▁1,000	-11.6244
▁trucks	-11.6245
▁GE	-11.625
▁judgment	-11.6251
coupon	-11.6253
▁condition	-11.6254
▁aides	-11.626
▁advice	-11.6262
▁rapidly	-11.6264
▁copper	-11.6267
▁surprise	-11.6273
▁occurred	-11.6276
▁engineer	-11.6279
▁Trans	-11.628
▁turning	-11.6281
▁definitive	-11.6284
2.4	-11.6289
▁600	-11.6295
▁deny	-11.6298
▁Bond	-11.6302
ler	-11.6303
x	-11.6305
▁advisers	-11.6313
▁Nor	-11.6317
▁sued	-11.6327
development	-11.6328
votes	-11.633
risen	-11.6331
▁Don	-11.6332
▁aware	-11.6338
▁weather	-11.6344
hand	-11.6348
distance	-11.6356
▁newspapers	-11.6356
▁negotiate	-11.6358
▁extraordinar	-11.637
▁Simon	-11.6372
▁student	-11.6374
written	-11.6381
▁title	-11.6385
▁trillion	-11.6386
▁threatened	-11.6387
▁49	-11.6389
▁stopp	-11.6391
▁criticiz	-11.6396
▁initiative	-11.6405
▁fallen	-11.6412
eased	-11.6412
▁specialists	-11.6413
▁Michigan	-11.6433
▁freedom	-11.6433
work	-11.6438
▁Fred	-11.6443
▁Bear	-11.6446
computer	-11.6448
▁surprising	-11.6451
▁resignation	-11.6457
drew	-11.6461
2.6	-11.6464
▁prohibit	-11.6465
paid	-11.6467
▁Just	-11.6471
▁inventory	-11.648
▁react	-11.6489
▁Report	-11.6489
▁Disney	-11.6491
rang	-11.6513
cent	-11.6516
▁English	-11.652
▁contends	-11.6521
eless	-11.6522
▁District	-11.6526
its	-11.6534
▁chang	-11.6535
▁aim	-11.6537
▁helping	-11.654
▁sees	-11.6541
▁strongly	-11.6548
ial	-11.6551
2.3	-11.6554
▁constitutional	-11.6556
▁2.5	-11.6562
▁recalls	-11.6562
▁Israeli	-11.6579
▁scheme	-11.658
▁Hall	-11.6581
dicated	-11.6585
▁Mark	-11.6592
▁Lawrence	-11.6603
sensitive	-11.6605
▁lease	-11.6612
standing	-11.6621
▁scientists	-11.6643
minus	-11.6643
vi	-11.6647
▁merchant	-11.665
▁false	-11.6656
▁Nicaragua	-11.6656
ABC	-11.6664
▁acting	-11.6668
Bache	-11.668
▁Robins	-11.6689
yen	-11.6692
ant	-11.6694
▁Chase	-11.67
▁Mac	-11.6706
▁41	-11.6717
▁publication	-11.672
▁Transportation	-11.6721
▁afternoon	-11.6726
wear	-11.6737
▁tobacco	-11.6741
flights	-11.6742
entered	-11.6742
exempt	-11.6743
▁intent	-11.6752
▁Current	-11.6753
▁None	-11.6776
▁Neverth	-11.6779
▁wake	-11.6789
▁Food	-11.6795
vision	-11.6802
▁Far	-11.681
lecommunications	-11.6817
▁differences	-11.6823
▁sentence	-11.6824
▁mergers	-11.6829
▁recommend	-11.6835
security	-11.6837
▁heads	-11.6841
▁Trump	-11.6842
▁promote	-11.6846
▁crime	-11.6849
▁ounce	-11.6852
after	-11.686
▁permanent	-11.6865
ization	-11.687
▁Wilson	-11.6877
▁expense	-11.6881
▁caution	-11.6883
▁massive	-11.6889
▁defeat	-11.6893
▁sugar	-11.6895
▁affairs	-11.6897
u	-11.6899
▁jump	-11.6901
▁plead	-11.6902
▁Dole	-11.6904
brand	-11.6905
▁summit	-11.6915
purchase	-11.6916
vo	-11.6922
▁takeovers	-11.6929
▁presence	-11.6932
▁Futures	-11.6933
▁earn	-11.6935
developed	-11.6935
▁recover	-11.694
▁broke	-11.6948
Con	-11.6955
use	-11.6962
2.7	-11.6967
▁Harvard	-11.6968
▁Sir	-11.6973
offerings	-11.6976
▁wealth	-11.6977
▁Why	-11.6981
50,000	-11.6986
▁consecutive	-11.6992
▁enable	-11.6992
pool	-11.6993
▁entertainment	-11.7001
lin	-11.7004
▁Cleveland	-11.7009
▁analysis	-11.7013
▁object	-11.7014
order	-11.702
▁healthy	-11.702
▁Pennsylvania	-11.7023
▁monitor	-11.7033
▁speak	-11.7036
▁lobby	-11.7041
▁incentives	-11.7043
▁EC	-11.7047
filled	-11.7066
▁burden	-11.7067
▁crop	-11.7078
▁letters	-11.7082
accounted	-11.7084
▁medium	-11.7085
▁default	-11.7085
.375	-11.7095
▁Drug	-11.71
▁oppos	-11.71
▁demands	-11.7107
▁Reynolds	-11.7109
office	-11.7112
▁occur	-11.7115
ax	-11.7119
street	-11.7128
Hill	-11.713
▁grain	-11.713
tive	-11.7133
▁doubled	-11.7134
ate	-11.7138
▁love	-11.7144
▁explains	-11.7145
▁projection	-11.7145
drink	-11.7154
▁resulting	-11.7161
▁Asian	-11.7176
▁subsid	-11.7178
▁poll	-11.7179
▁managed	-11.718
▁Attorney	-11.7181
▁Democrat	-11.7182
▁route	-11.719
▁video	-11.7197
▁thinking	-11.7198
▁committed	-11.7205
▁Dean	-11.7212
▁opponent	-11.7216
minute	-11.7221
8.5	-11.7221
▁match	-11.7225
▁safe	-11.7233
▁incident	-11.724
▁prefer	-11.7241
▁statistics	-11.7242
▁Stephen	-11.7244
▁Denver	-11.7247
▁Government	-11.7253
▁electrical	-11.7256
ne	-11.7258
▁participate	-11.7258
▁Green	-11.7259
2.1	-11.7266
im	-11.7268
▁detail	-11.7271
▁States	-11.7274
born	-11.7284
▁Coast	-11.7291
▁compensation	-11.7294
▁controversial	-11.7296
▁Commodity	-11.7298
▁54	-11.7302
▁citizens	-11.731
▁reputation	-11.731
▁dead	-11.731
▁attitude	-11.731
▁virtual	-11.731
et	-11.7311
▁quick	-11.7311
▁52	-11.7313
▁Product	-11.732
▁1.1	-11.7331
▁departure	-11.7341
▁consideration	-11.7345
▁fresh	-11.7347
plane	-11.7351
▁Machines	-11.7357
▁engage	-11.7366
▁Trad	-11.737
▁afford	-11.738
▁Bork	-11.7384
▁maximum	-11.7386
bridge	-11.7393
becomes	-11.7394
▁recovery	-11.7398
Each	-11.7407
▁bolster	-11.7411
▁BankAmerica	-11.7412
▁uncertainty	-11.7425
currency	-11.744
looking	-11.7444
▁RJR	-11.7449
▁Davis	-11.745
ten	-11.745
▁convert	-11.7461
▁Export	-11.7464
▁cards	-11.7465
▁Any	-11.7467
oc	-11.7469
follows	-11.7471
▁residents	-11.7481
▁indicator	-11.7483
ville	-11.7488
▁variety	-11.7492
▁procedures	-11.7496
▁receiving	-11.7501
30	-11.7501
▁complain	-11.7502
73	-11.7504
om	-11.751
▁Asia	-11.7513
tech	-11.7513
▁check	-11.7514
▁struggle	-11.752
built	-11.7529
▁reverse	-11.753
3.8	-11.7532
▁administrative	-11.7534
▁wages	-11.7541
▁otherwise	-11.7542
▁120	-11.7548
5.5	-11.7556
▁convention	-11.7557
▁subsequent	-11.7559
Cola	-11.7564
▁nature	-11.7565
▁pounds	-11.7566
drawn	-11.7572
▁Communist	-11.7584
▁Kohl	-11.7592
ntil	-11.7594
▁organizations	-11.7596
▁branch	-11.7601
▁judges	-11.761
▁emergency	-11.7612
▁decades	-11.7612
▁subsidiari	-11.7612
Bar	-11.7624
▁elsewhere	-11.7625
▁playing	-11.7626
▁touch	-11.7633
wa	-11.7639
plant	-11.7642
▁worrie	-11.7658
2.5	-11.7659
▁choose	-11.766
▁urge	-11.7666
▁spark	-11.7674
▁Turner	-11.7676
▁army	-11.7682
▁remember	-11.7688
▁seriously	-11.7695
▁53	-11.7695
10	-11.7698
ee	-11.7704
cell	-11.7709
place	-11.7715
▁Middle	-11.7716
X	-11.7722
linked	-11.7731
▁buyout	-11.7735
▁Henry	-11.7735
▁personnel	-11.7735
29	-11.7737
den	-11.7747
▁pressures	-11.7754
▁FDIC	-11.7755
▁affair	-11.7758
▁Bill	-11.776
▁justice	-11.7764
▁crowd	-11.7779
▁Sam	-11.7783
rising	-11.7789
▁barr	-11.7791
▁plaintiff	-11.7805
▁agricultural	-11.7807
▁Every	-11.7809
▁Hampshire	-11.7815
▁Valley	-11.7815
▁ratio	-11.7815
▁cheap	-11.782
boy	-11.7821
▁Hart	-11.7824
bringing	-11.7832
▁shut	-11.7833
▁cross	-11.7836
▁withdraw	-11.7838
▁guarantee	-11.7843
▁aide	-11.7844
▁broader	-11.7844
▁Island	-11.7845
▁knowledge	-11.7846
▁drought	-11.7848
▁Telephone	-11.7855
▁dismissed	-11.7858
▁display	-11.7858
▁silver	-11.7866
size	-11.7868
▁Bancorp	-11.7868
author	-11.787
▁warning	-11.787
▁10,000	-11.7874
▁Vietnam	-11.7891
▁audit	-11.7898
▁Gillette	-11.7902
▁blacks	-11.7906
▁Inter	-11.7906
▁gap	-11.791
quarters	-11.7913
▁Vice	-11.7919
▁applications	-11.7922
▁500,000	-11.7922
▁CIA	-11.7936
▁par	-11.7938
holding	-11.7938
capital	-11.7946
▁bottom	-11.7947
▁resolve	-11.7955
▁theory	-11.7955
▁depressed	-11.7959
▁sanctions	-11.7961
▁Executive	-11.7969
away	-11.7976
▁1.2	-11.798
sold	-11.7988
▁peak	-11.7988
▁electric	-11.7989
▁nomination	-11.7991
▁seasonally	-11.7992
▁requir	-11.7998
square	-11.8
3.2	-11.8
▁Jim	-11.801
▁survive	-11.8016
▁represented	-11.8025
▁fill	-11.8032
▁Frankfurt	-11.8034
▁trends	-11.8036
world	-11.8041
▁optimistic	-11.8052
light	-11.8052
liability	-11.8055
▁meant	-11.806
▁usual	-11.8062
ir	-11.8063
▁destroy	-11.8088
sen	-11.809
▁steady	-11.809
▁users	-11.8093
▁subcommittee	-11.8098
▁gasoline	-11.8098
▁Minneapolis	-11.8104
▁unfair	-11.8105
era	-11.8111
▁Iraq	-11.8115
▁Northern	-11.8126
▁buildings	-11.8127
▁Once	-11.8134
▁pricing	-11.8135
viewed	-11.8135
running	-11.8136
▁privately	-11.8138
▁extent	-11.8139
▁bonus	-11.814
position	-11.8141
▁Banking	-11.8146
▁Dan	-11.8149
▁suitor	-11.816
▁cooperation	-11.8167
recapitalization	-11.8174
0.5	-11.8175
▁stands	-11.8178
▁supporter	-11.8181
▁FCC	-11.8187
▁attacks	-11.8192
▁solution	-11.822
▁feeling	-11.8221
ating	-11.8221
15	-11.8224
▁consistent	-11.8229
ie	-11.8229
▁Coca	-11.8236
part	-11.8241
▁exploration	-11.8243
▁stable	-11.8246
million	-11.825
kill	-11.826
▁Walter	-11.8264
▁virus	-11.8268
bar	-11.827
▁deadline	-11.827
weight	-11.8284
writer	-11.8284
▁danger	-11.8288
▁failing	-11.8289
any	-11.8289
▁ventures	-11.8292
▁desire	-11.8293
▁concentrate	-11.8294
▁1960	-11.8295
▁wave	-11.8302
▁Source	-11.8305
-3	-11.8305
▁Marine	-11.8307
stein	-11.8308
▁resolution	-11.8313
▁Lambert	-11.8318
▁River	-11.8319
▁metals	-11.8319
credit	-11.8324
▁resume	-11.8327
link	-11.8331
▁intention	-11.8339
▁Ka	-11.8339
▁Worker	-11.8347
▁concessions	-11.8347
▁Red	-11.8347
anticipate	-11.8358
▁Agriculture	-11.8361
▁operators	-11.8363
▁resist	-11.8364
▁57	-11.838
▁minor	-11.8382
▁barrier	-11.8382
▁intelligence	-11.8385
leasing	-11.8388
▁weekly	-11.8388
ra	-11.8406
▁submitt	-11.8411
▁blame	-11.8411
9.5	-11.8411
▁powers	-11.8415
▁Daniel	-11.8417
▁exposure	-11.8417
▁manufacturer	-11.8423
facing	-11.8424
▁Tele	-11.8424
▁switch	-11.8426
name	-11.8429
Land	-11.8433
▁crucial	-11.8438
▁cabinet	-11.8438
▁mother	-11.8452
▁Virginia	-11.8461
.625	-11.8461
▁secondary	-11.8463
▁slide	-11.8463
▁install	-11.8464
▁pledge	-11.8465
▁Auto	-11.8466
▁Williams	-11.8467
rain	-11.8468
▁Maxwell	-11.8481
▁Di	-11.8481
▁scientific	-11.8483
▁friend	-11.8495
▁institution	-11.8506
ge	-11.8507
are	-11.8508
story	-11.8513
▁reject	-11.8516
▁liabiliti	-11.8521
thirds	-11.8521
venture	-11.8521
▁Persian	-11.8523
▁Arthur	-11.8524
sky	-11.8525
earnings	-11.8536
▁satellite	-11.8537
▁payable	-11.854
6.5	-11.8546
▁consumption	-11.855
▁tentative	-11.8552
▁fit	-11.8553
1.2	-11.8553
▁closer	-11.8556
▁Consolidated	-11.8559
▁resistance	-11.8559
▁dramatic	-11.8567
proved	-11.8568
0.4	-11.8569
▁restructure	-11.8574
center	-11.8578
▁sufficient	-11.8579
va	-11.8582
Pacific	-11.8584
ber	-11.8585
▁adequate	-11.8595
▁Can	-11.8597
▁admit	-11.8602
put	-11.8602
▁enormous	-11.8609
▁Bay	-11.8614
▁caught	-11.8617
▁physician	-11.8618
▁Bob	-11.8623
found	-11.8626
urg	-11.8633
▁marked	-11.8635
▁metal	-11.8641
▁Brazilian	-11.8646
▁India	-11.8647
▁1991	-11.8656
▁enterprise	-11.8658
lots	-11.8666
▁newsletter	-11.8667
▁experiment	-11.8668
4,000	-11.8671
▁husband	-11.8673
▁raising	-11.8674
▁controversy	-11.8674
▁productivity	-11.8682
▁Northwest	-11.8685
▁places	-11.8688
▁Volcker	-11.8689
▁training	-11.8696
▁Stearns	-11.8696
▁merchandise	-11.8701
▁FSLIC	-11.8718
▁THE	-11.8728
▁lift	-11.8728
unit	-11.873
defense	-11.873
▁mine	-11.8733
▁Royal	-11.8733
▁Gary	-11.8735
urging	-11.8735
raw	-11.8736
▁founder	-11.8736
▁Kim	-11.8742
45	-11.8744
▁stories	-11.8746
▁Illinois	-11.8746
mail	-11.8751
▁eager	-11.8762
pound	-11.8767
▁asks	-11.8768
▁puts	-11.8769
refore	-11.8773
ions	-11.8776
▁Georgia	-11.878
▁argument	-11.8781
round	-11.8781
▁solid	-11.8783
▁mount	-11.8783
pill	-11.8785
ists	-11.8788
2.9	-11.8792
▁Farmers	-11.8792
ball	-11.8795
▁suppliers	-11.8799
chairman	-11.8799
we	-11.8802
had	-11.8814
▁wheat	-11.8814
▁Pont	-11.8819
▁reasonable	-11.8819
▁59	-11.8822
Care	-11.8823
▁Exxon	-11.8827
▁ministers	-11.8828
4.2	-11.8833
▁franchise	-11.8838
▁confident	-11.8845
▁moral	-11.8855
▁Bass	-11.8869
▁certificate	-11.8872
▁devices	-11.8876
▁sole	-11.8878
▁ease	-11.8881
0.6	-11.8882
cy	-11.8882
▁1.3	-11.8884
▁boom	-11.8889
▁Ross	-11.8897
covering	-11.8903
▁negotiated	-11.8906
▁Edelman	-11.8909
▁Sch	-11.8913
front	-11.8917
▁demonstrate	-11.892
▁transfer	-11.8923
▁regime	-11.8926
▁violated	-11.8928
▁ticket	-11.8929
▁theater	-11.893
▁taxpayers	-11.8933
group	-11.8934
▁hoped	-11.8935
sum	-11.8938
▁broadcast	-11.8942
▁plastic	-11.895
▁sets	-11.8952
▁engines	-11.8955
▁Control	-11.8961
▁strategist	-11.8968
▁automotive	-11.8976
▁outcome	-11.8977
▁Republic	-11.898
▁Greenspan	-11.8983
▁Lloyd	-11.8983
▁cautious	-11.8986
▁bullish	-11.8991
▁specialist	-11.8991
▁58	-11.8992
▁Al	-11.9
▁Christmas	-11.9007
▁NBC	-11.9012
▁element	-11.9013
▁vast	-11.9013
▁victims	-11.9015
▁Ar	-11.9018
▁describe	-11.9019
0.2	-11.9021
▁winner	-11.9023
white	-11.9025
▁Geneva	-11.9028
▁Nicaraguan	-11.9035
smoking	-11.9035
fall	-11.9037
▁section	-11.904
gen	-11.9041
3.3	-11.905
▁Community	-11.9051
▁throw	-11.9053
ri	-11.9053
▁37.5	-11.9055
▁Del	-11.9056
▁impossible	-11.9058
▁Dealers	-11.9058
▁Her	-11.9059
traffic	-11.9059
88	-11.906
▁recall	-11.9067
ia	-11.9068
▁Russian	-11.9074
▁absolute	-11.908
▁complained	-11.9082
6,000	-11.9086
▁council	-11.9089
▁Broadcasting	-11.9097
comp	-11.9102
▁Nikkei	-11.9103
▁BP	-11.911
beat	-11.9116
▁routine	-11.9118
▁worker	-11.9123
gent	-11.9129
master	-11.9138
ul	-11.9142
▁poison	-11.9145
futures	-11.9148
▁nominee	-11.9149
▁approximate	-11.9153
▁institute	-11.9153
▁observer	-11.9155
product	-11.9157
▁consultants	-11.9163
▁Beside	-11.9164
▁Delta	-11.9165
▁Hills	-11.9171
▁Diego	-11.9171
77	-11.9182
▁Arabia	-11.9182
▁industrials	-11.9192
Van	-11.9193
▁written	-11.9194
▁Barney	-11.9194
sales	-11.9195
▁shot	-11.9204
▁credits	-11.9206
wing	-11.9211
▁High	-11.9215
▁disaster	-11.9217
▁successor	-11.9221
il	-11.9224
duty	-11.9225
ise	-11.9225
▁circumstances	-11.9228
▁extensive	-11.9232
person	-11.9234
▁mass	-11.9237
serving	-11.924
▁Phillips	-11.9241
issu	-11.9242
▁modern	-11.9247
▁Mortgage	-11.9248
▁1978	-11.9248
▁Rose	-11.9258
▁Shultz	-11.9263
▁Spain	-11.9266
▁oversee	-11.9267
television	-11.9268
delivery	-11.927
▁legislative	-11.9271
▁Le	-11.9274
▁shrink	-11.9278
▁unable	-11.9284
4.3	-11.9284
▁Day	-11.9287
▁EPA	-11.9294
▁improv	-11.9304
▁apparel	-11.9307
▁stockholders	-11.9311
98	-11.9318
model	-11.9319
▁wall	-11.9329
faced	-11.9337
▁Dome	-11.9339
▁reluctant	-11.934
driven	-11.9344
training	-11.9345
▁Bundesbank	-11.9348
▁Allegis	-11.9348
4.4	-11.9354
▁listed	-11.9355
▁conclusion	-11.9356
▁prominent	-11.9356
▁eliminat	-11.936
3.4	-11.9362
▁border	-11.9362
▁Cooper	-11.9362
▁56	-11.9366
▁Eurobond	-11.9371
▁supermarket	-11.9372
▁Hill	-11.9373
▁unexpected	-11.9373
▁draw	-11.9378
▁sweeten	-11.9379
▁redemption	-11.9379
▁62	-11.9385
▁Mobil	-11.9386
▁nervous	-11.9387
▁covered	-11.9389
seat	-11.9392
▁Mercantile	-11.9394
edge	-11.9398
ring	-11.9399
▁retire	-11.9402
▁papers	-11.9405
▁movies	-11.941
▁Sterling	-11.9418
wise	-11.9419
▁persuade	-11.9422
fifth	-11.9433
▁camp	-11.944
▁Edison	-11.9441
even	-11.9453
▁Montreal	-11.9457
UA	-11.946
ford	-11.9473
▁dangerous	-11.9473
▁electricity	-11.9473
3.7	-11.9475
▁withdrawal	-11.9476
io	-11.9477
▁fighting	-11.9487
des	-11.9492
casino	-11.9496
elect	-11.9503
▁Hunt	-11.9507
▁coffee	-11.9509
▁cap	-11.9511
▁welcome	-11.9512
▁error	-11.9512
▁fired	-11.9512
▁inadequate	-11.952
media	-11.9523
pro	-11.9524
▁US	-11.9525
▁bargain	-11.9532
▁imported	-11.9533
▁applied	-11.9533
tank	-11.9535
▁sluggish	-11.9535
▁sentiment	-11.9536
ian	-11.9537
growth	-11.9542
mill	-11.9542
na	-11.9543
▁incentive	-11.9543
▁Further	-11.9544
▁location	-11.9545
8.8	-11.9555
▁borrower	-11.9558
▁negotiator	-11.9561
high	-11.9564
▁clean	-11.9565
▁concept	-11.9565
▁extension	-11.9567
code	-11.9572
▁behavior	-11.9575
▁whatever	-11.9576
▁games	-11.9578
▁types	-11.9582
waste	-11.9585
▁McDonald	-11.9591
▁accountant	-11.9593
▁Hospital	-11.9599
▁Cable	-11.9615
35	-11.9621
▁Lake	-11.9625
haz	-11.9626
▁layoff	-11.963
▁Press	-11.963
83	-11.9633
▁Carolina	-11.9639
▁Chief	-11.9639
▁Good	-11.9645
▁McDonnell	-11.9647
sellers	-11.9648
▁rapid	-11.9651
▁radical	-11.9654
7,000	-11.9659
area	-11.9662
label	-11.9667
▁train	-11.9671
▁liquidity	-11.9679
▁Micro	-11.9679
▁shopping	-11.9692
▁Allen	-11.9695
▁tied	-11.97
3.6	-11.97
▁dominate	-11.971
keeping	-11.9721
5.7	-11.9727
▁reading	-11.973
▁contributions	-11.9734
▁Henley	-11.9743
40	-11.9747
▁Constitution	-11.9756
▁Mae	-11.9758
▁Toyota	-11.9759
▁Hotel	-11.9759
ish	-11.9766
▁Entertainment	-11.9775
fish	-11.9779
▁64	-11.9782
▁Statistic	-11.9791
▁Louisiana	-11.9791
▁Lord	-11.9792
▁convict	-11.9801
1.25	-11.9802
▁abuse	-11.9809
▁neighbor	-11.981
5.1	-11.9811
▁stemm	-11.9813
▁Hanover	-11.9816
▁recruit	-11.9823
▁Technologies	-11.9824
▁consent	-11.9824
ette	-11.9828
▁Argentina	-11.9832
▁anticipat	-11.9834
▁grown	-11.9837
▁accelerate	-11.984
▁Bruce	-11.984
country	-11.984
▁regulation	-11.9847
▁FAA	-11.9848
Marc	-11.9852
▁aspect	-11.9852
▁salary	-11.9856
▁exclusive	-11.9864
▁soldier	-11.9866
row	-11.9867
ants	-11.9877
▁mining	-11.9881
▁telling	-11.9885
Quebec	-11.9896
▁congress	-11.9897
▁mis	-11.9898
ice	-11.9903
bust	-11.9909
research	-11.9912
▁Enterprises	-11.9912
▁seeing	-11.9916
▁practical	-11.9918
▁coalition	-11.9922
▁Budget	-11.9922
▁vehicle	-11.9925
▁dis	-11.9929
▁assert	-11.9933
▁61	-11.9941
19	-11.9951
▁requested	-11.9959
▁duties	-11.9963
ot	-11.9969
▁permitt	-11.9969
▁Seoul	-11.9971
▁barrel	-11.9977
oriented	-11.9977
▁draft	-11.9981
▁democracy	-11.9982
ach	-11.9987
▁chances	-11.9989
▁memo	-11.999
▁discontinued	-11.9992
▁road	-11.9992
▁arbitrage	-11.9993
▁holder	-11.9995
▁underwriting	-11.9999
▁tight	-12.0003
▁forms	-12.0003
▁Hughes	-12.0004
0.3	-12.0005
▁Kenne	-12.0006
▁penalt	-12.0011
▁swap	-12.0015
dog	-12.0022
▁Fort	-12.0026
▁fellow	-12.0028
▁aluminum	-12.0029
book	-12.003
ride	-12.0037
▁85	-12.0037
▁novel	-12.0043
ocal	-12.0046
▁presented	-12.0048
▁church	-12.0056
▁Interstate	-12.0062
78	-12.0062
74	-12.0068
▁activist	-12.0072
ide	-12.0073
bus	-12.0078
▁seasonal	-12.0079
split	-12.0081
▁Va	-12.0087
▁involvement	-12.0087
▁perfect	-12.009
▁load	-12.0094
▁allege	-12.0094
▁distributor	-12.0094
inger	-12.0097
▁sheet	-12.0098
▁IMF	-12.0104
▁Dennis	-12.0104
▁club	-12.0107
▁800	-12.0107
▁tire	-12.011
▁calculated	-12.012
▁Index	-12.0121
▁Miss	-12.0123
▁upward	-12.0123
fraud	-12.0125
▁Tax	-12.0126
3.1	-12.0127
vulnerable	-12.0129
▁speculate	-12.0131
▁supplier	-12.0145
▁repair	-12.0147
▁favorable	-12.0147
▁EDT	-12.0154
▁tighten	-12.0157
▁gradual	-12.0162
▁temporarily	-12.0162
▁Your	-12.0164
▁@	-12.0166
▁document	-12.0172
▁Indiana	-12.0175
ba	-12.0181
▁predicts	-12.0182
▁Foods	-12.0185
▁Peabody	-12.0188
▁curb	-12.0191
▁guideline	-12.0191
81	-12.0193
hu	-12.0194
▁actively	-12.0195
▁alliance	-12.0196
▁ignore	-12.0198
▁eye	-12.0203
▁Nomura	-12.0204
▁bear	-12.0208
▁Intel	-12.0213
▁improper	-12.0213
tool	-12.0213
▁sit	-12.0218
▁deregulation	-12.0222
6.7	-12.0225
▁Burlington	-12.023
▁Midland	-12.023
rely	-12.0232
▁700	-12.0235
▁shuttle	-12.0236
goals	-12.0237
▁Pickens	-12.0238
4.6	-12.0239
▁happens	-12.0242
▁Walsh	-12.0244
reaching	-12.0245
▁Say	-12.0246
▁Occidental	-12.0247
▁branche	-12.0255
▁slowdown	-12.0256
▁Dutch	-12.0259
enforcement	-12.0262
tested	-12.0264
▁culture	-12.027
▁Ga	-12.0277
▁turns	-12.028
▁kids	-12.0289
▁blamed	-12.0298
▁method	-12.0299
89	-12.0301
▁Bever	-12.0309
▁Tom	-12.031
▁strict	-12.0317
erhaps	-12.0323
▁asserted	-12.0328
▁CORP	-12.033
▁evening	-12.0339
▁Indian	-12.034
37	-12.034
▁hiring	-12.0341
▁Man	-12.0349
▁Hudson	-12.035
.125	-12.0356
▁conclude	-12.036
▁diplomat	-12.0364
▁theme	-12.0369
▁ends	-12.0372
▁tension	-12.0376
▁investigations	-12.0377
marketing	-12.0386
▁studio	-12.0389
▁Thompson	-12.0392
▁advocate	-12.0395
▁Is	-12.0409
drive	-12.0414
▁1.7	-12.0417
▁exception	-12.0424
▁postpon	-12.0426
▁tiny	-12.0445
disk	-12.0452
Va	-12.0453
▁religious	-12.0459
▁expenditure	-12.0461
▁leak	-12.0464
inter	-12.0467
▁advertiser	-12.0475
▁memory	-12.0477
▁developments	-12.0482
▁focused	-12.0486
▁weaker	-12.049
van	-12.0493
▁maybe	-12.0494
river	-12.0499
gene	-12.0502
▁Pillsbury	-12.0504
▁intense	-12.051
▁Midwest	-12.0511
▁Spanish	-12.0513
bur	-12.0515
ep	-12.0527
iron	-12.0531
investment	-12.0531
arranged	-12.0538
▁precious	-12.0541
▁Honda	-12.0548
▁happy	-12.0548
sized	-12.0549
refund	-12.0552
▁completion	-12.0565
▁rallie	-12.0567
97	-12.0568
▁delayed	-12.057
▁Northrop	-12.0574
92	-12.0575
▁retailing	-12.0582
farm	-12.059
▁screen	-12.06
▁Cincinnati	-12.06
workers	-12.0603
CO	-12.0605
▁injunction	-12.0609
▁Palestinian	-12.061
▁CD	-12.061
▁Polan	-12.0611
▁overnight	-12.0613
▁Blue	-12.0614
▁commodities	-12.0618
counts	-12.062
76	-12.062
general	-12.0623
ak	-12.0623
▁Robertson	-12.0625
▁GNP	-12.0626
fourth	-12.0627
▁dream	-12.0628
lay	-12.0629
izing	-12.0631
▁Roger	-12.0634
ranking	-12.0645
production	-12.065
▁confidential	-12.0653
▁Witter	-12.0653
▁aside	-12.0658
▁numero	-12.0658
20,000	-12.0659
▁camera	-12.0661
Com	-12.0663
▁fail	-12.0664
▁purchasing	-12.0665
▁beer	-12.0669
3.9	-12.0669
▁volatil	-12.0676
circuit	-12.0679
▁remov	-12.0684
▁gift	-12.0685
▁winning	-12.0688
▁Recent	-12.0688
craft	-12.069
▁motion	-12.0692
▁College	-12.0694
▁teach	-12.0696
▁phase	-12.0696
▁Lincoln	-12.0697
▁Society	-12.0699
▁implication	-12.0699
▁programming	-12.0699
▁device	-12.0701
entry	-12.0702
ized	-12.0705
▁harder	-12.0706
6.8	-12.071
▁Mesa	-12.0712
warm	-12.0712
fully	-12.0716
▁auditor	-12.0726
tele	-12.0728
79	-12.0742
performance	-12.0746
bound	-12.0751
▁Let	-12.0755
▁blow	-12.0755
4.8	-12.0755
▁Wood	-12.0755
7.8	-12.0759
▁hop	-12.0762
▁features	-12.0762
▁Right	-12.0762
▁decrease	-12.0763
▁Generale	-12.0764
▁Medicare	-12.0768
▁USX	-12.0769
▁waste	-12.0774
ung	-12.0774
▁fines	-12.0776
▁cold	-12.0777
▁welfare	-12.0777
union	-12.0778
86	-12.0782
▁Campbell	-12.0782
65	-12.0785
▁suggestion	-12.0787
▁arm	-12.0788
port	-12.0788
bill	-12.0792
▁application	-12.0798
charter	-12.0811
▁ships	-12.0811
▁Light	-12.0813
5.2	-12.0814
0.7	-12.0814
▁sex	-12.0819
▁exist	-12.0819
▁Southwest	-12.0822
▁raises	-12.0826
▁slight	-12.0829
▁historical	-12.0831
▁promotion	-12.0836
▁slowed	-12.0837
owed	-12.0839
▁textile	-12.084
8.2	-12.0844
competitive	-12.0847
have	-12.085
5.8	-12.0851
▁Farm	-12.0852
▁resign	-12.0854
Car	-12.0858
▁Little	-12.0858
▁Arizona	-12.0867
▁Hollywood	-12.0867
▁consensus	-12.0868
▁enact	-12.0873
available	-12.0877
▁fields	-12.0877
▁pharmaceutical	-12.088
5.6	-12.0882
▁Airways	-12.0885
Illinois	-12.0886
case	-12.0887
▁round	-12.0901
▁200,000	-12.0904
rental	-12.0909
pa	-12.0914
▁expires	-12.0914
face	-12.0916
▁ministry	-12.0931
5.3	-12.0931
▁assembly	-12.0932
▁Lil	-12.0934
▁listen	-12.0938
▁Moore	-12.094
▁jail	-12.0941
▁agenda	-12.0948
▁Club	-12.0948
▁Sweden	-12.0949
▁Saatchi	-12.0949
▁Sony	-12.0949
▁table	-12.0956
ful	-12.0957
discrimination	-12.0958
shop	-12.096
ED	-12.0962
30,000	-12.0962
▁III	-12.0966
▁participation	-12.0972
▁site	-12.0974
writers	-12.0976
▁businessman	-12.098
▁escape	-12.0981
1.5	-12.0983
▁necessari	-12.0985
▁comparison	-12.0985
▁Network	-12.0985
non	-12.0986
20	-12.0987
4.9	-12.0992
▁Conservative	-12.0994
▁volatile	-12.0997
▁function	-12.1
▁Bankruptcy	-12.1003
▁island	-12.1004
named	-12.1004
tumbled	-12.1006
▁respective	-12.1007
pay	-12.101
▁winter	-12.1011
▁Amoco	-12.1021
▁uncertain	-12.1023
▁reveal	-12.1025
▁foreigners	-12.1026
▁bull	-12.1029
ear	-12.1033
▁passengers	-12.1034
▁shipping	-12.1036
eat	-12.1037
source	-12.1041
▁plays	-12.1041
▁Beach	-12.1044
▁hair	-12.1047
ver	-12.1056
drilling	-12.1058
▁rural	-12.1058
▁UAL	-12.106
pack	-12.1064
▁politically	-12.1066
▁cease	-12.1066
▁discussion	-12.1067
▁dry	-12.1068
4.7	-12.1074
▁Fair	-12.1075
grade	-12.1075
▁compound	-12.1076
▁swing	-12.1077
▁younger	-12.1081
armed	-12.1083
▁Who	-12.1083
▁underly	-12.1083
▁NATO	-12.1086
▁edition	-12.109
mining	-12.1093
examine	-12.1093
sale	-12.1097
▁See	-12.1102
acres	-12.1106
gotte	-12.1107
vil	-12.111
▁pleas	-12.111
▁slower	-12.111
works	-12.1115
▁plent	-12.1116
▁nearby	-12.1116
parts	-12.112
▁Lewis	-12.1121
▁constant	-12.1122
▁invite	-12.1123
▁maintenance	-12.1124
▁shake	-12.1124
health	-12.113
▁Rock	-12.1135
▁feature	-12.1136
green	-12.114
meaning	-12.1147
▁Minnesota	-12.115
▁Perot	-12.115
▁Nissan	-12.1159
▁consortium	-12.116
▁struggl	-12.116
▁downgrade	-12.1161
▁favorite	-12.1162
▁collection	-12.1163
▁Cent	-12.1168
▁Fidelity	-12.1169
▁lend	-12.1169
▁baby	-12.1169
▁debtor	-12.1169
overhaul	-12.117
5.4	-12.1174
▁drawing	-12.1178
▁treated	-12.1179
▁bulk	-12.1179
pan	-12.118
bi	-12.1185
▁absence	-12.1187
8.4	-12.1194
▁box	-12.1195
▁Alaska	-12.1196
▁disappointed	-12.1198
▁keeping	-12.12
ow	-12.1206
▁cattle	-12.1206
▁MCI	-12.1206
▁merit	-12.1208
▁Net	-12.121
▁Ivan	-12.121
▁transferr	-12.1215
▁Panama	-12.1215
PS	-12.1223
▁segment	-12.1223
▁180	-12.1224
▁Brands	-12.1226
▁presidenc	-12.1232
recorded	-12.1242
▁bitter	-12.1242
▁divest	-12.1245
▁everybody	-12.1245
▁beef	-12.1247
▁Nev	-12.1251
▁1969	-12.1254
military	-12.1254
▁Prof	-12.1258
league	-12.1262
NBC	-12.1264
▁strategies	-12.1272
▁TWA	-12.1272
▁350	-12.1277
▁plung	-12.1287
▁Steven	-12.1288
Senate	-12.1293
▁luxury	-12.1296
96	-12.1298
early	-12.1309
▁Stocks	-12.1317
▁reality	-12.1318
▁organized	-12.1319
▁MCA	-12.132
▁machinery	-12.1321
lock	-12.1329
cast	-12.1331
▁fly	-12.1333
0.1	-12.1354
debt	-12.1358
▁surface	-12.1363
▁command	-12.1372
▁Final	-12.1376
ta	-12.1387
▁threaten	-12.1388
residential	-12.1392
▁Macmillan	-12.1404
▁cool	-12.1408
▁films	-12.1409
87	-12.141
da	-12.1412
▁Allegheny	-12.1413
▁Lotus	-12.1413
▁Samuel	-12.1413
▁Unlike	-12.1414
▁potentially	-12.1421
▁Telegraph	-12.1423
active	-12.1423
4.1	-12.1423
▁restrict	-12.1433
▁guide	-12.1435
iv	-12.1436
▁Oklahoma	-12.1439
▁Zealand	-12.1442
▁patient	-12.1455
stone	-12.1455
▁wholesale	-12.1466
trained	-12.1466
shot	-12.1479
flying	-12.1487
▁economics	-12.1487
▁Gramm	-12.149
insured	-12.1492
▁Wis	-12.1496
▁wrongdoing	-12.1499
▁USAir	-12.1499
▁secured	-12.1502
▁wish	-12.1503
wage	-12.1507
▁Murdoch	-12.1509
▁belief	-12.1512
dozen	-12.1515
cap	-12.1518
▁Scott	-12.1521
▁heat	-12.1525
▁talent	-12.1528
spending	-12.1529
▁Met	-12.1535
▁INC	-12.1535
▁Microsoft	-12.1536
forth	-12.1546
▁turnaround	-12.1548
▁payroll	-12.1548
▁125	-12.1548
▁restore	-12.155
▁vigorous	-12.1557
▁southern	-12.1557
▁Tri	-12.1558
rub	-12.156
▁slowly	-12.1563
▁Worth	-12.1564
▁equally	-12.1565
edged	-12.1565
▁quit	-12.1568
▁Dai	-12.1569
▁Rich	-12.1575
cle	-12.1575
shar	-12.1577
▁Ba	-12.1579
▁brother	-12.158
▁onto	-12.1581
▁violence	-12.1581
▁sectors	-12.1584
▁Four	-12.1586
▁catch	-12.1587
packaging	-12.1596
▁guy	-12.1597
▁tour	-12.1602
inch	-12.1602
▁controll	-12.1603
▁neighborhood	-12.1606
barrel	-12.1607
hall	-12.1608
▁Joe	-12.1614
Trust	-12.1616
▁vary	-12.1616
ick	-12.1617
▁prepar	-12.1617
▁length	-12.1619
▁Mil	-12.1621
ING	-12.1623
lies	-12.1624
▁notion	-12.1631
▁revolution	-12.1635
▁Ray	-12.1635
communist	-12.1637
▁PC	-12.1638
▁conversion	-12.1642
▁mail	-12.1645
▁backing	-12.1646
electronics	-12.1648
▁killing	-12.165
▁Science	-12.1651
▁straight	-12.1651
▁bureau	-12.1654
▁Common	-12.1655
▁divid	-12.1656
▁cheaper	-12.1656
▁Whit	-12.1657
94	-12.1658
▁formula	-12.1661
tie	-12.1666
shelter	-12.1666
▁Asset	-12.1667
▁Gordon	-12.1669
▁NASA	-12.1674
▁Late	-12.1675
safety	-12.1676
84	-12.1676
▁Christian	-12.1678
▁businessmen	-12.1689
▁Utah	-12.1693
▁steep	-12.1702
efficiency	-12.1702
▁economi	-12.1702
inflation	-12.1705
occupie	-12.1713
▁retreat	-12.1721
▁Company	-12.1723
▁benchmark	-12.1723
Well	-12.1723
▁foundation	-12.1725
ress	-12.1725
leg	-12.1732
▁99	-12.1732
▁Capitol	-12.1732
▁Short	-12.1732
▁explained	-12.1733
▁slash	-12.1733
Iraq	-12.1735
▁hire	-12.1736
loyal	-12.1737
▁canno	-12.1744
▁converted	-12.1745
rating	-12.1745
operation	-12.1749
▁Philippines	-12.1752
nic	-12.1758
▁encouraging	-12.1762
▁Wang	-12.1764
▁graduate	-12.1766
▁northern	-12.1782
▁statute	-12.1782
▁Much	-12.1782
▁agrees	-12.1782
▁ought	-12.1785
▁liability	-12.1791
empt	-12.1795
hat	-12.18
▁assumed	-12.1805
print	-12.1805
9.9	-12.1806
▁super	-12.1809
▁physical	-12.1811
▁Ha	-12.1811
▁Taylor	-12.1811
▁elderly	-12.1814
consolidated	-12.1814
93	-12.1815
acted	-12.1815
cycle	-12.1822
▁eyes	-12.1823
far	-12.1824
em	-12.1831
▁purpose	-12.1836
▁glass	-12.1844
▁insists	-12.1845
▁ounces	-12.1848
western	-12.1848
▁alter	-12.1855
gun	-12.1855
8.3	-12.1857
last	-12.1859
▁precise	-12.1861
▁bushel	-12.1861
▁column	-12.1863
arbide	-12.1864
met	-12.1871
▁scene	-12.1874
▁Pre	-12.1876
▁petroleum	-12.188
▁marketplace	-12.1886
▁posts	-12.1889
▁fleet	-12.189
▁Thatcher	-12.1891
▁admitted	-12.1892
▁Ta	-12.1893
printing	-12.1899
7.7	-12.19
burn	-12.1904
ranks	-12.191
▁Super	-12.1911
▁sophisticat	-12.1913
▁polls	-12.1913
▁Will	-12.1918
▁Be	-12.1921
▁helicopter	-12.1921
▁Money	-12.1921
▁wild	-12.1922
handled	-12.1922
▁host	-12.1926
comfortable	-12.1932
5.9	-12.1933
▁Metropolitan	-12.1941
▁unsuccessful	-12.1941
▁Andrew	-12.1942
▁Pittsburgh	-12.1947
▁Through	-12.1951
▁Seattle	-12.1951
▁reward	-12.1952
▁Catholic	-12.1955
6.2	-12.1957
people	-12.1959
▁picked	-12.1961
closing	-12.1961
▁Jacobs	-12.1962
▁jet	-12.1963
▁arbitrager	-12.1963
▁LTV	-12.1964
▁delivered	-12.1964
▁chains	-12.1968
▁taste	-12.1968
▁finds	-12.197
▁Similar	-12.1971
48	-12.1972
33	-12.1972
▁violate	-12.1974
lived	-12.1985
▁interesting	-12.1986
▁penalty	-12.1987
▁Mining	-12.1999
▁flood	-12.2
▁FBI	-12.2002
▁1976	-12.2002
ap	-12.2003
▁rock	-12.2003
▁premiums	-12.2005
▁flexibility	-12.2011
▁immune	-12.2011
▁exclud	-12.2013
▁appointment	-12.2014
▁bar	-12.2018
▁Seven	-12.2028
▁Code	-12.2031
Lambert	-12.2033
▁thin	-12.2036
▁adjust	-12.2038
ster	-12.2038
▁asbestos	-12.2042
OPEC	-12.2045
▁relief	-12.2046
aided	-12.2048
8,000	-12.2055
▁tougher	-12.2055
lip	-12.2057
my	-12.2058
▁testifie	-12.2059
stakes	-12.2062
ett	-12.2063
speak	-12.2063
America	-12.2063
▁mines	-12.2069
▁honor	-12.2071
1.1	-12.2075
▁absorb	-12.2077
▁Gephardt	-12.2082
▁WSJ	-12.2082
▁tradition	-12.2087
easing	-12.2091
▁Connecticut	-12.2093
▁Foundation	-12.2093
▁competitor	-12.2098
bright	-12.2105
▁guerrilla	-12.2109
▁EDS	-12.2109
18	-12.212
▁Benedetti	-12.2123
ped	-12.2124
ble	-12.2131
▁carefully	-12.2131
Japanese	-12.2135
mission	-12.214
▁Singer	-12.214
▁understanding	-12.2143
▁League	-12.2144
▁Shamrock	-12.2144
utter	-12.2149
▁bases	-12.2152
guess	-12.2156
▁Major	-12.2156
▁senators	-12.2156
EST	-12.2156
pieces	-12.2159
▁tariff	-12.2164
▁Lebanon	-12.2164
▁Montgomery	-12.2164
▁university	-12.2164
▁intellectual	-12.2166
faith	-12.217
▁emphasize	-12.2172
reviewing	-12.2173
▁ordinary	-12.2175
Bank	-12.2175
▁charg	-12.2182
▁RepublicBank	-12.2185
▁1977	-12.2185
▁keeps	-12.2186
▁sitting	-12.2193
▁province	-12.2195
▁superior	-12.2195
▁household	-12.22
▁unveil	-12.2201
▁Afghanistan	-12.2205
▁ignor	-12.2205
▁Bas	-12.2206
▁Cohen	-12.2206
▁Limited	-12.2207
7.3	-12.2207
▁borrow	-12.2208
▁replac	-12.221
0.8	-12.2214
▁Kaiser	-12.2216
▁Banks	-12.2222
▁Bo	-12.2225
▁140	-12.2226
▁museum	-12.2226
urs	-12.2228
▁jointly	-12.2228
▁12-	-12.2233
buying	-12.2236
▁Ye	-12.2236
▁promot	-12.2238
▁hint	-12.2239
▁guaranteed	-12.2241
▁combat	-12.2247
public	-12.2253
▁investigate	-12.2253
▁biotechnology	-12.2257
▁immigrant	-12.2257
7.4	-12.2261
compliance	-12.2267
budget	-12.227
▁slowing	-12.2276
new	-12.2278
▁participat	-12.2279
▁Leon	-12.2284
▁apartment	-12.2285
▁preference	-12.2288
▁forest	-12.2292
nuclear	-12.2293
▁Roberts	-12.2293
tu	-12.2294
lot	-12.2295
▁130	-12.23
boat	-12.2301
▁demonstration	-12.2301
pot	-12.2301
wind	-12.2303
▁boss	-12.2304
average	-12.2305
▁Environmental	-12.2307
▁Airbus	-12.2307
▁Wisconsin	-12.2309
▁assumption	-12.2309
▁efficient	-12.2309
▁facts	-12.2312
GE	-12.2315
regulat	-12.2318
▁stepped	-12.232
▁writing	-12.2322
reform	-12.2323
▁cigarette	-12.2337
▁Stone	-12.2338
forcing	-12.2339
▁Lo	-12.2339
▁borrowed	-12.2341
lately	-12.2343
▁inevitabl	-12.2344
▁driving	-12.2344
6.1	-12.2346
▁anyway	-12.2348
▁defensive	-12.2351
arm	-12.2353
▁color	-12.2355
▁pays	-12.2357
informed	-12.236
▁cite	-12.2361
▁Gray	-12.2363
▁lesson	-12.2364
▁dance	-12.2373
monopol	-12.2375
▁abandoned	-12.238
▁Whe	-12.238
49	-12.238
ward	-12.2381
▁rocket	-12.2381
▁freeze	-12.2385
▁arguments	-12.2386
sweeping	-12.2388
▁Ci	-12.2389
7.6	-12.2396
▁emphasi	-12.2396
▁arrive	-12.2401
load	-12.2406
▁Ho	-12.2413
pollution	-12.2414
▁baseball	-12.2414
▁preserve	-12.2415
▁greatest	-12.2415
hostages	-12.2419
▁background	-12.2425
▁senator	-12.2428
shed	-12.2429
▁Commercial	-12.2431
sleep	-12.2435
yard	-12.2442
▁declare	-12.2442
▁Second	-12.2445
▁recovered	-12.2451
▁philosoph	-12.2455
protection	-12.2457
ga	-12.2458
advised	-12.2459
▁Where	-12.246
ol	-12.2461
capacity	-12.2462
dependent	-12.2464
▁USA	-12.2465
▁Holmes	-12.2466
▁seat	-12.2472
mall	-12.2477
▁accurate	-12.2477
80	-12.2479
▁badly	-12.2479
▁diplomatic	-12.2479
king	-12.2487
▁Tenn	-12.2487
▁timing	-12.2493
dated	-12.2501
se	-12.2504
pens	-12.2505
▁designer	-12.2506
appliance	-12.2509
▁permission	-12.2509
6.9	-12.2512
breaking	-12.2513
▁pictures	-12.2517
85	-12.2518
democratic	-12.2519
▁medicine	-12.2519
launch	-12.2528
▁roll	-12.2535
▁Pakistan	-12.2535
Eddie	-12.2551
▁conviction	-12.2556
rise	-12.2556
come	-12.2557
▁tremendous	-12.2562
▁ITT	-12.2562
▁occasional	-12.2564
call	-12.2566
▁brothers	-12.2567
▁category	-12.2573
▁science	-12.2574
▁Wells	-12.2577
▁covers	-12.2577
▁stuff	-12.2579
▁assess	-12.2582
▁Kravis	-12.2583
▁degree	-12.2584
▁Toshiba	-12.2592
Shell	-12.2594
▁implement	-12.2594
▁terminal	-12.2594
Belgian	-12.2596
▁objection	-12.2597
▁handl	-12.2601
▁pursu	-12.2601
qual	-12.2602
▁murder	-12.2605
▁controller	-12.2606
▁skeptical	-12.2608
▁Kuwait	-12.2613
▁broadcasting	-12.2618
bargaining	-12.2621
28	-12.2623
▁publishe	-12.2624
▁financier	-12.2626
▁sub	-12.2628
▁clothing	-12.2629
circulation	-12.2638
▁computerized	-12.2638
ip	-12.2643
▁salarie	-12.2644
▁Beijing	-12.2648
▁harvest	-12.2649
Go	-12.2653
▁eliminated	-12.2657
added	-12.2657
▁dropping	-12.2659
1.50	-12.2662
▁100-	-12.2665
▁Lockheed	-12.2669
▁conspiracy	-12.267
▁gather	-12.2671
▁brings	-12.2672
▁canceled	-12.2672
▁Jose	-12.2673
cash	-12.2675
▁repay	-12.2678
8.9	-12.268
steel	-12.2689
rush	-12.2691
▁Ontario	-12.2691
▁Information	-12.2691
▁automobile	-12.2691
7.9	-12.2692
ada	-12.2692
▁probe	-12.2696
▁mistake	-12.2699
fighting	-12.2699
Cor	-12.27
▁63	-12.2701
▁laid	-12.2705
▁Art	-12.2709
▁Amendment	-12.2713
▁Getty	-12.2713
▁bearish	-12.2713
▁Stevens	-12.2719
▁prepare	-12.2723
▁dinner	-12.2723
▁legislator	-12.2724
Cal	-12.2724
▁Dayton	-12.2725
▁resolved	-12.2738
volume	-12.2741
6.3	-12.2742
▁holiday	-12.2743
▁substance	-12.2745
▁Baltimore	-12.2747
Port	-12.275
▁replacement	-12.2759
tries	-12.2762
▁Rather	-12.2768
▁pointed	-12.2771
conduct	-12.2776
▁indict	-12.2777
▁Colorado	-12.2778
▁Philippine	-12.2778
▁consolidation	-12.2778
ha	-12.2779
▁Paper	-12.278
ki	-12.2781
▁Education	-12.2786
▁Nippon	-12.2789
▁urban	-12.2789
▁hundred	-12.2789
rick	-12.2797
▁debts	-12.2802
ological	-12.2804
▁academic	-12.2804
teen	-12.2806
Corp	-12.2807
▁commissioner	-12.2808
▁Anthon	-12.2811
▁petition	-12.2811
▁Per	-12.2816
▁enforcement	-12.2816
path	-12.2816
▁Uni	-12.2818
▁truth	-12.2818
▁wine	-12.282
▁Unisys	-12.2822
▁explanation	-12.2822
9,000	-12.2827
▁nice	-12.2827
ied	-12.2835
▁skills	-12.2843
▁momentum	-12.2844
gra	-12.2845
ert	-12.2849
▁crew	-12.2851
rises	-12.2861
▁platform	-12.2866
▁Electronics	-12.2866
ka	-12.2873
▁mayor	-12.2877
▁independence	-12.2878
▁Volkswagen	-12.2886
▁publicity	-12.2886
▁copies	-12.2889
copy	-12.2891
will	-12.2902
▁apart	-12.2903
placement	-12.2905
▁dark	-12.291
▁protected	-12.2914
saving	-12.2919
▁unsecured	-12.2921
▁Milken	-12.2921
▁Ward	-12.2924
hy	-12.2928
▁creation	-12.2929
8.7	-12.2931
▁readers	-12.2931
▁repurchase	-12.2932
▁Water	-12.2932
▁Mary	-12.2934
▁terrorist	-12.294
▁Bentsen	-12.2943
91	-12.2946
▁Albert	-12.2947
▁Maine	-12.2949
▁restrain	-12.2949
▁methods	-12.2953
▁chicken	-12.2954
▁prospective	-12.2955
▁daughter	-12.2956
▁Corporate	-12.2965
▁zero	-12.2967
▁Li	-12.2968
spin	-12.2969
▁110	-12.2969
▁manner	-12.2973
satisfied	-12.2977
▁disappointing	-12.2977
▁fortune	-12.2977
sites	-12.2983
▁Mitsubishi	-12.2999
▁depositor	-12.2999
▁Lines	-12.3004
eth	-12.3004
▁commercials	-12.3006
regulation	-12.3008
foods	-12.3009
▁God	-12.301
count	-12.3011
root	-12.3011
stage	-12.3014
▁Diamond	-12.3021
▁obstacle	-12.3021
▁Warren	-12.3021
utility	-12.3022
9.8	-12.3023
▁trip	-12.3026
▁detect	-12.3027
▁Noriega	-12.303
▁listing	-12.3032
collar	-12.3032
▁classe	-12.3039
▁floating	-12.304
▁Revlon	-12.3043
▁300,000	-12.3044
bed	-12.3046
▁planner	-12.3048
bag	-12.3051
▁successfully	-12.3053
1.3	-12.3053
storm	-12.3054
▁Total	-12.3056
7.1	-12.3063
▁grounds	-12.3064
▁Resort	-12.3066
▁capabilit	-12.3067
▁Casey	-12.3067
lie	-12.307
favored	-12.3073
▁gulf	-12.3075
▁Phoenix	-12.3077
▁downturn	-12.3078
▁rail	-12.308
▁Ben	-12.3082
0.9	-12.3082
▁veteran	-12.3082
▁Equipment	-12.3088
trial	-12.309
gaining	-12.309
▁transmission	-12.3105
▁cutback	-12.3107
▁Companie	-12.3111
Rudman	-12.3111
storage	-12.3122
▁Maybe	-12.3123
▁troubles	-12.3127
▁maturity	-12.3129
▁useful	-12.3129
▁Previous	-12.3133
ni	-12.3135
▁coup	-12.3144
▁comply	-12.3146
▁Tire	-12.3147
▁agriculture	-12.3156
▁Marshall	-12.3156
▁Harry	-12.3156
trip	-12.3158
sur	-12.316
fold	-12.3165
▁tools	-12.3165
▁accomplish	-12.3165
60	-12.3167
▁froze	-12.3167
▁72	-12.3168
▁Part	-12.317
▁overwhelming	-12.3172
▁furniture	-12.3172
▁Quayle	-12.3175
▁Rate	-12.3177
ps	-12.3178
▁clearance	-12.318
fueled	-12.3182
top	-12.3184
▁park	-12.3185
▁focusing	-12.3187
tightening	-12.3189
▁Monetary	-12.319
▁Alexander	-12.319
▁Donaldson	-12.3191
▁crack	-12.3201
▁Parliament	-12.3201
materials	-12.3205
▁Swedish	-12.3213
▁north	-12.3215
▁enhance	-12.3218
ical	-12.3234
▁steadi	-12.3234
▁69	-12.3234
▁animals	-12.3238
mar	-12.324
▁GTE	-12.3242
▁handful	-12.3247
▁selection	-12.3247
9.2	-12.3252
through	-12.3256
▁Bonds	-12.3262
▁exporter	-12.3267
▁birth	-12.3271
rine	-12.3271
lab	-12.3273
▁solicit	-12.3277
▁content	-12.3279
Intelligence	-12.3281
▁reference	-12.3281
▁breach	-12.3286
date	-12.3286
▁appearance	-12.3287
▁abandon	-12.3294
loser	-12.3298
▁Equity	-12.3301
▁tape	-12.3302
helps	-12.3303
▁Aquino	-12.3304
▁Regan	-12.3307
ott	-12.331
writing	-12.3316
▁administrator	-12.3316
▁dissident	-12.3316
▁101	-12.332
▁multi	-12.332
▁stabilize	-12.3323
force	-12.3325
▁receipt	-12.3327
▁streets	-12.3328
▁Gerald	-12.3331
▁Las	-12.3332
▁mandate	-12.3333
▁broken	-12.3336
▁catalog	-12.3339
▁Sullivan	-12.3339
▁predecessor	-12.3339
fined	-12.3344
▁parliament	-12.3348
10,000	-12.3349
▁excellent	-12.335
▁Manufacturing	-12.3362
▁excessive	-12.3363
▁guarantees	-12.3366
▁steelmaker	-12.3367
guard	-12.3378
wer	-12.3379
▁Ariz	-12.3385
▁striking	-12.3385
chief	-12.3398
threatening	-12.3406
qualified	-12.3406
▁sport	-12.3411
item	-12.3412
▁Lt	-12.3413
eligible	-12.342
▁Brussels	-12.342
▁delegates	-12.342
registration	-12.342
stake	-12.3424
▁praise	-12.3426
▁Freeman	-12.3426
fruit	-12.3428
fl	-12.3428
▁interim	-12.3432
▁Eurodollar	-12.3432
41	-12.3437
bo	-12.3439
▁Tehran	-12.3443
▁sustained	-12.3445
▁correction	-12.3454
▁plummet	-12.3455
▁acknowledg	-12.3456
ani	-12.3457
ore	-12.3459
▁inspection	-12.3461
▁setback	-12.3467
▁Kraft	-12.3467
▁techniques	-12.3469
Domini	-12.3475
▁financially	-12.348
cor	-12.3487
▁checks	-12.3489
▁Germans	-12.3489
fired	-12.3498
seller	-12.35
system	-12.3502
IN	-12.3502
7.2	-12.3503
su	-12.3503
October	-12.3506
ell	-12.3507
temperature	-12.3513
▁generic	-12.3513
Med	-12.3516
ilk	-12.3517
coast	-12.352
dale	-12.3521
▁guys	-12.3524
▁rebate	-12.3525
▁marginal	-12.3527
▁laboratory	-12.3527
Pro	-12.3536
▁boards	-12.3537
▁Engineer	-12.3537
▁liquidation	-12.3538
▁automatic	-12.3541
6.6	-12.3547
allie	-12.3548
▁vacation	-12.355
13	-12.3554
▁AMR	-12.3554
▁demanding	-12.3557
serves	-12.3559
▁Laboratories	-12.3561
▁Next	-12.3561
▁Larr	-12.3562
▁injur	-12.3563
builder	-12.3572
▁ceiling	-12.3572
▁lucra	-12.3573
Point	-12.3574
▁shape	-12.3581
dumping	-12.3585
productive	-12.3585
pitch	-12.3589
definition	-12.3596
▁RATE	-12.3596
profile	-12.3598
Q	-12.3603
▁vital	-12.3609
ery	-12.3617
assurance	-12.3619
biggest	-12.3619
sell	-12.362
▁credibility	-12.362
▁solve	-12.3624
▁Media	-12.3626
▁Fox	-12.3626
band	-12.363
▁Egypt	-12.3631
▁Chevron	-12.3632
▁communit	-12.3632
1.7	-12.3637
export	-12.3646
▁interpret	-12.3646
only	-12.3647
▁stress	-12.365
value	-12.3651
pain	-12.3652
▁pilot	-12.3655
AT	-12.3657
entech	-12.3659
▁illustrate	-12.3659
▁Clark	-12.366
hipped	-12.3662
▁contribution	-12.3662
8.6	-12.3663
▁Netherlands	-12.3667
gate	-12.3667
▁hardware	-12.3668
▁cooperate	-12.3669
▁exemption	-12.3673
ified	-12.3675
▁500-	-12.3678
▁stall	-12.3679
licensing	-12.3679
▁Utilities	-12.3679
▁Anderson	-12.368
▁Iraqi	-12.368
▁alleg	-12.3685
diluted	-12.3688
▁cast	-12.3696
▁challeng	-12.3697
▁Chris	-12.3701
▁Mellon	-12.3708
▁fighter	-12.3715
▁Church	-12.3715
evaluate	-12.3719
67	-12.3721
▁Jerry	-12.3727
▁desk	-12.3729
toxic	-12.3729
▁surrounding	-12.3735
▁emotional	-12.3739
clima	-12.3739
CB	-12.374
▁rooms	-12.3743
bit	-12.3749
▁confusion	-12.3751
▁ethics	-12.3752
▁Chile	-12.3754
▁attribute	-12.3757
ily	-12.3759
▁insolvent	-12.3761
flow	-12.3762
▁passing	-12.3763
▁territory	-12.3763
refining	-12.3763
▁Hu	-12.3764
▁Islam	-12.3764
▁Five	-12.3765
drift	-12.3767
▁subscribers	-12.377
▁asserts	-12.3789
responsibilities	-12.3794
▁Ko	-12.3798
zone	-12.3801
▁encounter	-12.3801
▁promising	-12.3803
heating	-12.3806
▁62.5	-12.3807
▁Afghan	-12.3809
proof	-12.3815
▁Profit	-12.3816
▁stance	-12.3818
▁wider	-12.3827
▁steam	-12.3828
▁Milan	-12.3829
▁Grey	-12.3832
▁Jordan	-12.3835
nell	-12.3835
900	-12.3836
ure	-12.3842
▁Grant	-12.3855
▁Natural	-12.386
6.4	-12.3861
▁Baa	-12.3862
▁regularly	-12.3867
▁voluntary	-12.3872
restraint	-12.3874
transport	-12.3884
▁Nix	-12.3888
▁equities	-12.389
morning	-12.3892
▁shelf	-12.3895
▁cellular	-12.3897
▁teams	-12.3898
▁Roy	-12.39
abortion	-12.3901
au	-12.3905
▁refugee	-12.3905
second	-12.3908
ory	-12.3909
▁specify	-12.3909
▁Southland	-12.3913
▁upper	-12.3914
tion	-12.3916
▁raid	-12.3917
▁Northeast	-12.392
▁Patrick	-12.3921
▁prediction	-12.3925
performing	-12.3938
ways	-12.394
▁outlays	-12.3944
2000	-12.3944
▁Wickes	-12.3946
▁constitute	-12.3946
▁advise	-12.3946
distribution	-12.3947
▁educational	-12.3947
▁Distiller	-12.3948
▁NASD	-12.3958
▁observe	-12.396
▁Parker	-12.3961
▁staffer	-12.3962
▁calm	-12.3963
▁stimulate	-12.3965
data	-12.3968
▁south	-12.397
▁sample	-12.397
▁250,000	-12.3972
▁mature	-12.3974
▁Ky	-12.3975
▁issuer	-12.3975
▁famous	-12.398
bet	-12.398
9.6	-12.3981
▁1950	-12.3983
tends	-12.3984
ranged	-12.3985
▁sea	-12.3994
▁Bennett	-12.3995
▁bailout	-12.3996
▁secure	-12.3997
▁Advanc	-12.3999
▁busy	-12.3999
▁Cuban	-12.4
▁native	-12.4001
▁wire	-12.4003
▁Bonn	-12.4004
▁highway	-12.4006
▁stick	-12.4016
gone	-12.4017
▁Bern	-12.4019
▁creative	-12.402
▁downward	-12.4021
girl	-12.4025
▁pure	-12.4027
wife	-12.4028
▁1973	-12.4031
▁Proceed	-12.4032
▁Jeffrey	-12.4032
June	-12.4032
▁stated	-12.4034
63	-12.4035
▁households	-12.4037
▁rent	-12.404
▁Congressional	-12.4044
▁Steinberg	-12.4044
processor	-12.4045
moving	-12.4049
▁1997	-12.4049
Mosle	-12.4049
▁slid	-12.4053
▁advisory	-12.4056
recognition	-12.4056
▁Westinghouse	-12.4056
horse	-12.4058
▁Luf	-12.4061
▁consequences	-12.4062
located	-12.4062
▁mood	-12.4069
▁adjustable	-12.407
ose	-12.4073
▁Best	-12.4078
await	-12.4079
▁explore	-12.4079
prescription	-12.4081
▁Imperial	-12.4081
male	-12.4082
▁Goodyear	-12.4091
▁Herald	-12.4094
▁components	-12.4094
▁payout	-12.4102
living	-12.4104
lire	-12.4105
▁directed	-12.4117
Signal	-12.4119
▁Instrument	-12.4119
hang	-12.412
▁Silver	-12.4124
▁spirit	-12.4124
▁valuable	-12.4125
▁leads	-12.4131
▁inspector	-12.4132
▁registered	-12.4135
▁skeptic	-12.414
poor	-12.414
▁differ	-12.4143
▁revision	-12.4144
table	-12.4144
▁reopen	-12.4145
40,000	-12.4147
▁Manila	-12.4156
▁teachers	-12.4157
▁talked	-12.4158
smoke	-12.4159
window	-12.4163
▁sympath	-12.4165
▁spur	-12.4166
▁450	-12.4166
▁Barry	-12.417
▁Hans	-12.4175
▁civilian	-12.4181
▁Irish	-12.4181
▁married	-12.4182
▁resort	-12.4185
▁conceded	-12.4186
▁fun	-12.4188
Philips	-12.4191
The	-12.4194
▁offshore	-12.4195
2.50	-12.4199
▁bottle	-12.42
suffering	-12.4202
let	-12.4203
▁misleading	-12.4209
▁mix	-12.4209
▁restricted	-12.421
pending	-12.4212
acts	-12.4215
▁Poindexter	-12.4219
curred	-12.4221
▁cultural	-12.4224
outs	-12.4227
game	-12.4227
most	-12.423
Free	-12.4231
▁trim	-12.4232
▁Ca	-12.4235
Channel	-12.4242
fought	-12.4244
▁spurr	-12.4245
ink	-12.4248
Mar	-12.4248
1,500	-12.425
ana	-12.4252
form	-12.4255
▁perception	-12.4257
▁considerabl	-12.4258
▁Levine	-12.4258
treatment	-12.4261
▁downtown	-12.4263
▁legislature	-12.4269
Thomson	-12.427
▁Lucky	-12.427
bearing	-12.4274
ix	-12.4275
▁Internal	-12.4282
lun	-12.4283
▁barely	-12.4285
hold	-12.4287
▁meat	-12.4289
housing	-12.4294
pham	-12.4294
▁complicat	-12.43
poverty	-12.4308
denominated	-12.4308
▁football	-12.4308
36	-12.4312
▁Rothschild	-12.432
▁Zurich	-12.432
▁definite	-12.432
▁introduction	-12.4321
▁Authority	-12.4321
▁vs	-12.4322
▁speculative	-12.4323
▁Kan	-12.4323
script	-12.4326
judge	-12.4331
▁proportion	-12.4333
▁Dynamics	-12.4333
▁unprecedented	-12.4333
▁Orleans	-12.4333
▁Rockwell	-12.4333
▁Pictures	-12.4336
▁departments	-12.4341
▁fault	-12.4345
evident	-12.4346
▁submit	-12.4347
▁counterpart	-12.4357
MGM	-12.4359
▁Sugar	-12.436
▁priority	-12.436
▁Jesse	-12.4362
▁deductions	-12.4362
iness	-12.4366
judicial	-12.4371
▁stem	-12.4376
fix	-12.4378
fan	-12.4379
▁Regulator	-12.4384
generous	-12.4384
Japan	-12.4387
ages	-12.4389
woman	-12.439
▁diversified	-12.4392
▁transition	-12.4397
▁legitimate	-12.4397
▁Television	-12.4397
▁turm	-12.4398
▁20-	-12.4409
marriage	-12.441
payments	-12.441
▁1975	-12.4421
kind	-12.4423
▁youth	-12.4423
▁remainder	-12.4425
▁Norman	-12.4425
▁finish	-12.4429
▁manufacture	-12.4433
▁assigned	-12.4434
aircraft	-12.4434
▁Aviation	-12.4436
▁Glass	-12.4437
▁upset	-12.4437
▁restor	-12.4441
mus	-12.4442
aging	-12.4444
▁supervisor	-12.4445
▁Line	-12.4446
Russell	-12.4448
▁Hilton	-12.4448
▁1993	-12.4457
▁Mitchell	-12.4461
▁Polaroid	-12.4461
chair	-12.4462
▁1974	-12.4462
Back	-12.4473
▁smooth	-12.4474
September	-12.4477
pit	-12.4477
16	-12.4478
60,000	-12.448
▁collateral	-12.4482
▁Old	-12.4482
ng	-12.4487
▁mechanism	-12.4487
▁Austin	-12.4487
che	-12.4489
▁rescue	-12.4495
:	-12.4498
▁Senator	-12.45
▁Oliver	-12.45
▁interpretation	-12.4501
▁Week	-12.4504
tting	-12.4507
▁classic	-12.4512
▁Walker	-12.4513
▁impression	-12.452
po	-12.4524
mouth	-12.4525
▁sizable	-12.4526
▁Caesar	-12.4526
▁Franklin	-12.4526
▁trail	-12.4528
dividend	-12.4531
▁artificial	-12.4539
Olympic	-12.4548
▁Sandinistas	-12.4553
▁Ed	-12.4553
▁Hispanic	-12.4554
▁Nova	-12.4559
under	-12.456
▁laser	-12.4563
August	-12.4563
▁Follow	-12.4565
folk	-12.4565
▁160	-12.4569
▁mental	-12.4574
▁feed	-12.4578
▁repeal	-12.4578
▁empire	-12.4578
Seabrook	-12.4578
▁lure	-12.4579
▁Deutsche	-12.459
▁Hartford	-12.4591
▁remind	-12.4593
▁artists	-12.4598
▁hedge	-12.4601
▁coordinat	-12.4601
▁Interest	-12.4603
▁Harold	-12.4605
ox	-12.4612
pe	-12.4613
radar	-12.4615
ze	-12.4618
▁assessment	-12.4621
ping	-12.4622
▁750	-12.4625
▁Safety	-12.4632
belt	-12.4644
▁Olympics	-12.4648
▁Evans	-12.4652
see	-12.4654
▁Turkey	-12.4657
▁denie	-12.4657
▁Later	-12.4658
▁shock	-12.4659
▁guest	-12.4659
▁partial	-12.4661
▁Robinson	-12.4666
▁treasurer	-12.4668
▁witness	-12.4669
▁oust	-12.467
▁67	-12.467
rel	-12.4671
cott	-12.4673
Chi	-12.4675
▁Fanni	-12.4675
▁Adm	-12.4677
Alberta	-12.4677
▁optimis	-12.4677
May	-12.4679
scene	-12.4679
▁Murphy	-12.4683
generating	-12.4684
▁Tim	-12.4685
▁drove	-12.4685
bow	-12.4687
concert	-12.4691
▁referr	-12.4694
gear	-12.4694
▁injuries	-12.4695
RE	-12.4696
▁Mutual	-12.4696
▁Xerox	-12.4696
▁exploit	-12.4696
rank	-12.4699
▁sounds	-12.47
arms	-12.4701
▁Murray	-12.4704
▁female	-12.4706
▁occasion	-12.4707
▁strange	-12.471
▁Golden	-12.4713
▁Men	-12.4713
▁71	-12.4714
▁Wolf	-12.4717
kron	-12.4721
owner	-12.4721
▁Space	-12.4724
▁225	-12.4736
▁Nabisco	-12.4736
▁unclear	-12.4736
▁relax	-12.4736
appreciation	-12.4739
missed	-12.474
▁circle	-12.4744
assuming	-12.475
▁unique	-12.475
▁passage	-12.4752
▁AB	-12.4752
ult	-12.4753
Ol	-12.4753
▁collapsed	-12.4756
string	-12.4756
agency	-12.4759
channel	-12.476
Shield	-12.4763
▁prize	-12.4763
▁prosecution	-12.4763
dis	-12.4766
▁Belgi	-12.4773
offensive	-12.4776
▁leverage	-12.4778
▁cotton	-12.4779
▁lunch	-12.478
▁82	-12.4785
cup	-12.4786
animal	-12.4786
ambitious	-12.4789
▁divert	-12.4789
▁workstation	-12.479
▁Brady	-12.4793
▁unsolici	-12.4796
▁Bilzerian	-12.4803
▁village	-12.4803
▁Speaker	-12.4804
grocery	-12.4804
pped	-12.4806
▁establishment	-12.4813
55	-12.4814
43	-12.4819
▁Cine	-12.482
▁Ways	-12.483
stream	-12.4831
Tech	-12.4835
▁cumulative	-12.4837
▁assist	-12.4837
mart	-12.4843
▁informal	-12.4843
2,500	-12.4846
▁TPA	-12.4846
season	-12.4851
▁tru	-12.4853
▁JWT	-12.4856
liquid	-12.4858
ourselves	-12.4858
▁strongest	-12.486
diminish	-12.4865
mine	-12.4865
▁Ra	-12.4867
▁portray	-12.4869
▁Given	-12.4871
tin	-12.4881
managed	-12.4885
38	-12.4886
24	-12.4889
sustain	-12.4893
▁presidents	-12.4896
cu	-12.49
site	-12.49
Victo	-12.4909
▁vacanc	-12.491
Video	-12.491
Socialist	-12.4911
▁mills	-12.4913
▁multiple	-12.4918
▁hero	-12.4926
tag	-12.4927
▁protectionist	-12.4928
bloc	-12.4931
▁Museum	-12.4937
▁Edwin	-12.4937
▁Harcourt	-12.4937
-7	-12.4943
ground	-12.4943
injury	-12.495
submarine	-12.4951
ight	-12.4953
▁sw	-12.4955
▁viewers	-12.4962
▁discourage	-12.4966
IC	-12.4975
▁Realty	-12.4978
▁broaden	-12.4979
tree	-12.498
▁Jewish	-12.4984
▁shared	-12.4989
condition	-12.4991
▁Heritage	-12.4992
▁1972	-12.4992
▁68	-12.4994
▁Marketing	-12.4995
offs	-12.4999
▁skin	-12.5005
▁Sydney	-12.5005
▁disagree	-12.5005
lists	-12.5008
metals	-12.5008
▁indirect	-12.5009
▁atmosphere	-12.5019
▁ballot	-12.502
apartheid	-12.5021
▁failures	-12.5025
▁Within	-12.5028
▁Commodities	-12.5033
9.4	-12.5036
▁outlets	-12.5037
Atlantic	-12.5038
racial	-12.5046
Newport	-12.505
track	-12.506
▁surgery	-12.5065
tial	-12.5069
▁Are	-12.507
▁grants	-12.5072
Lorimar	-12.5074
cholesterol	-12.5074
▁Oppenheimer	-12.5074
▁Southeast	-12.5074
▁Ry	-12.5075
good	-12.5076
▁clinical	-12.5081
alcohol	-12.5084
handed	-12.5086
▁pressing	-12.5086
regulatory	-12.5087
▁explosion	-12.5087
▁stressed	-12.509
sense	-12.509
▁enforce	-12.5091
flu	-12.51
vaccine	-12.5101
▁Ralph	-12.5101
▁Wayne	-12.5101
▁Brian	-12.5101
▁acceptance	-12.5103
▁crops	-12.511
pum	-12.5112
▁Director	-12.5117
▁specialize	-12.5117
▁violat	-12.5121
▁discipline	-12.5126
ger	-12.5127
17	-12.5135
ski	-12.5136
west	-12.5138
mortgage	-12.5142
▁Penn	-12.5147
holders	-12.515
▁blocked	-12.5151
▁compact	-12.5152
▁Roh	-12.5152
▁measured	-12.5153
purpose	-12.5157
▁emerging	-12.5158
ticket	-12.516
effective	-12.5165
printer	-12.5166
▁Colo	-12.5166
opera	-12.5167
▁Coniston	-12.517
rod	-12.5174
▁intra	-12.5175
▁Costa	-12.5178
hard	-12.5178
vel	-12.518
horn	-12.5183
actors	-12.519
▁attach	-12.5192
Benz	-12.5194
▁Economics	-12.5194
luster	-12.5194
▁missing	-12.5195
▁Mikhail	-12.5198
▁arrange	-12.5199
step	-12.52
afternoon	-12.52
▁punish	-12.5202
pressed	-12.5202
▁Adams	-12.5205
▁Klein	-12.5212
▁Richmond	-12.5212
▁Euro	-12.5214
▁artist	-12.5218
du	-12.5221
1.75	-12.5221
▁strain	-12.5229
dy	-12.5235
favorable	-12.5237
▁punitive	-12.524
▁sick	-12.5244
olf	-12.5244
les	-12.5249
▁entitle	-12.5249
▁attempted	-12.525
▁substitute	-12.5251
▁odds	-12.5252
▁Mountain	-12.5252
▁Coke	-12.5254
▁likes	-12.5255
▁Grace	-12.526
stop	-12.5264
capitalization	-12.5269
▁Economist	-12.5269
Sandinista	-12.5281
▁confront	-12.5281
▁SDI	-12.5283
▁Gate	-12.5284
▁Tower	-12.5284
▁Small	-12.5287
miss	-12.5289
▁satisfy	-12.5292
▁Commonwealth	-12.5296
cargo	-12.5296
fax	-12.5298
enneco	-12.5301
assured	-12.5304
▁prevail	-12.5304
World	-12.5305
44	-12.5306
lender	-12.5308
photograph	-12.5309
dominant	-12.5309
▁mandatory	-12.531
▁verdict	-12.531
▁adverse	-12.531
▁marketer	-12.5311
▁Real	-12.5317
▁Opera	-12.5318
woo	-12.5323
▁highs	-12.5324
Packard	-12.5324
ck	-12.5327
▁justify	-12.533
▁impress	-12.533
earning	-12.5337
▁Daimler	-12.5338
▁25,000	-12.5344
▁knowing	-12.5351
▁immigration	-12.5352
referred	-12.5353
hound	-12.5353
▁Via	-12.5358
▁Siemens	-12.5366
▁latter	-12.5366
▁15-	-12.5376
▁Fuji	-12.538
▁billing	-12.5382
payment	-12.5383
j	-12.5392
dyne	-12.5392
wound	-12.5393
conglomerate	-12.5394
▁enthusiasm	-12.5394
▁platinum	-12.5394
CE	-12.5396
roads	-12.54
▁Ore	-12.5401
dominat	-12.5402
▁cloud	-12.5406
▁valid	-12.5409
▁drivers	-12.5409
▁anticipation	-12.5409
▁syndicate	-12.541
▁Salvador	-12.5423
ounce	-12.5429
▁banned	-12.5437
▁assault	-12.5437
▁Maryland	-12.5438
acre	-12.5445
▁HUD	-12.5451
▁Wedtech	-12.5451
picking	-12.5458
▁celebrat	-12.5463
▁Certain	-12.5466
▁Acquisition	-12.5466
▁Siegel	-12.5466
▁dump	-12.547
Up	-12.5471
text	-12.5476
aviation	-12.548
▁deserve	-12.5484
December	-12.5485
wan	-12.5491
▁Raymond	-12.5494
▁stars	-12.5503
corruption	-12.5509
fiber	-12.5509
▁endorse	-12.5509
▁accumulat	-12.5511
sexual	-12.5516
▁fails	-12.5517
ailing	-12.552
▁warehouse	-12.5523
▁restate	-12.5534
▁Firestone	-12.5537
flexible	-12.5552
▁ambassador	-12.5552
Pratt	-12.5552
▁Treat	-12.5552
try	-12.5558
▁victim	-12.5558
▁Princeton	-12.5566
ti	-12.5568
April	-12.5568
test	-12.5571
▁paint	-12.5576
weapon	-12.5576
▁Wash	-12.5579
supplie	-12.5581
▁Se	-12.5583
9.1	-12.5589
ino	-12.5592
▁combine	-12.5594
damaged	-12.5594
▁Dodge	-12.5596
advertise	-12.5598
56	-12.5605
motor	-12.5608
▁refer	-12.5611
fty	-12.5612
▁procedure	-12.562
▁pork	-12.5624
acid	-12.5625
friend	-12.5627
emi	-12.5628
trials	-12.5633
defined	-12.5638
tale	-12.5638
▁Indonesia	-12.5638
▁provider	-12.5639
▁learning	-12.564
▁Sons	-12.5643
▁regain	-12.5646
▁Shares	-12.5653
▁Seagram	-12.5653
▁technique	-12.5664
▁Deposit	-12.5665
▁Strategic	-12.5667
▁bold	-12.5668
downs	-12.5669
anger	-12.5674
▁Rev	-12.5682
▁subpoena	-12.5682
▁Aerospace	-12.5682
▁Antonio	-12.5682
▁decid	-12.5683
▁cartel	-12.5683
▁officially	-12.5686
▁plea	-12.569
minded	-12.5692
▁outsider	-12.5696
▁signing	-12.5699
ging	-12.5699
▁Ren	-12.5705
▁packages	-12.5708
▁federally	-12.571
via	-12.571
8.50	-12.5712
lines	-12.5712
▁Pat	-12.5719
classified	-12.5719
pl	-12.572
▁KKR	-12.5726
durable	-12.5726
▁spoke	-12.573
▁Frederick	-12.5741
▁recipient	-12.5741
disposal	-12.5741
appropriation	-12.5741
▁transform	-12.5747
children	-12.5754
▁afr	-12.5755
▁fierce	-12.5755
▁Belgium	-12.5755
▁sister	-12.5758
▁Holding	-12.5767
AM	-12.5769
▁simultaneous	-12.577
▁Columbus	-12.577
▁episode	-12.577
▁vessel	-12.577
▁FTC	-12.577
space	-12.5774
odd	-12.5776
base	-12.5778
gathering	-12.5779
▁plastics	-12.578
▁Dick	-12.5781
pre	-12.5782
ative	-12.5783
▁Cambridge	-12.5785
▁opposite	-12.5785
▁testify	-12.5787
und	-12.579
22	-12.579
rid	-12.5791
▁Ken	-12.5791
▁Ex	-12.5792
▁battles	-12.5793
▁stiff	-12.5796
▁happening	-12.5797
▁technologies	-12.5799
▁jets	-12.58
ownership	-12.58
▁Cross	-12.58
scientist	-12.5802
tor	-12.581
▁recording	-12.5814
▁Protection	-12.5814
▁imbalance	-12.5814
import	-12.5817
▁10.3	-12.5821
franc	-12.5823
flag	-12.5826
▁exceeding	-12.5829
▁Gould	-12.5829
▁Malaysia	-12.5829
uke	-12.5831
▁syndrome	-12.5832
▁landing	-12.5834
▁insiders	-12.5835
▁13-	-12.5838
▁Compaq	-12.5844
▁dirt	-12.5844
▁technological	-12.5847
▁NRC	-12.5849
Pittsburgh	-12.585
scope	-12.5852
▁Cuba	-12.5854
voting	-12.5854
▁400,000	-12.5859
▁county	-12.5859
▁fate	-12.586
▁Peat	-12.586
▁explor	-12.5863
▁Craz	-12.5864
9.7	-12.5874
▁flaw	-12.5876
ES	-12.588
▁drives	-12.5881
pi	-12.5884
earth	-12.5884
voice	-12.5884
procurement	-12.5888
▁Mer	-12.589
9.3	-12.5895
▁booming	-12.5896
ated	-12.59
za	-12.59
administer	-12.5903
repayment	-12.591
tant	-12.5912
▁Reed	-12.5913
▁Olympia	-12.5913
▁anymore	-12.5916
▁WPP	-12.5918
array	-12.5918
fil	-12.592
ranked	-12.5925
mat	-12.5931
▁worsen	-12.5932
▁Citibank	-12.5933
▁applicant	-12.5933
▁revive	-12.5938
▁Kingdom	-12.5948
▁Shopping	-12.5949
ations	-12.5952
equipp	-12.5954
▁Kelly	-12.5956
arch	-12.5964
▁Few	-12.5968
▁kick	-12.5973
▁Pay	-12.5976
▁doors	-12.5978
▁Avon	-12.5981
▁careful	-12.5982
▁Call	-12.5984
▁Venezuela	-12.5988
▁acquirer	-12.599
founder	-12.5992
▁Affair	-12.5993
▁unanimous	-12.5993
▁Secord	-12.5993
▁Alliance	-12.5993
▁Early	-12.5995
▁angry	-12.5995
▁Par	-12.5999
▁spill	-12.6004
▁Hewlett	-12.6008
▁overcome	-12.6011
floor	-12.6016
▁2-	-12.6021
own	-12.6022
▁mainframe	-12.6023
▁Six	-12.6029
hill	-12.6031
▁Peru	-12.6035
▁60-	-12.6037
▁impressive	-12.6039
▁myself	-12.6039
March	-12.6044
▁Chun	-12.6046
▁exam	-12.6047
▁divorce	-12.6048
▁Arco	-12.6049
▁Ma	-12.605
July	-12.6053
privilege	-12.6054
▁Reliance	-12.6054
neck	-12.6057
▁undermine	-12.6058
lows	-12.6061
show	-12.6064
▁assure	-12.6067
▁Top	-12.6068
▁precedent	-12.6069
▁Cray	-12.607
Import	-12.6072
▁shoes	-12.6077
about	-12.6081
rice	-12.6083
shape	-12.6083
discretion	-12.6084
▁Mississippi	-12.6084
▁Bayer	-12.6086
ren	-12.6088
bomb	-12.6089
▁Fi	-12.6093
▁Stein	-12.6095
ack	-12.6096
fans	-12.6099
concrete	-12.6099
trust	-12.6102
▁Sometime	-12.6108
-10	-12.6111
▁pulp	-12.6112
▁Hamilton	-12.6114
▁Me	-12.6116
▁Take	-12.612
▁disrupt	-12.6126
testing	-12.6126
mer	-12.6127
▁Missouri	-12.613
▁SmithKline	-12.613
deductible	-12.613
▁Taft	-12.613
▁clothes	-12.613
distribut	-12.613
▁travelers	-12.6132
▁buoy	-12.6145
▁Kentucky	-12.6145
▁expiration	-12.6145
▁bureaucracy	-12.6145
iverse	-12.6146
approved	-12.6148
securities	-12.6149
▁seized	-12.6151
od	-12.6151
very	-12.6157
▁Institution	-12.6159
▁Telecom	-12.616
▁parking	-12.6171
clearing	-12.6172
lated	-12.6186
▁15,000	-12.6187
▁scrutin	-12.6188
▁vendor	-12.6191
▁Dollar	-12.6191
▁Avenue	-12.6191
deferred	-12.6194
manufacturing	-12.6198
pop	-12.6202
▁Dart	-12.6206
Watch	-12.621
▁10.5	-12.6216
▁reap	-12.6218
2.25	-12.622
eral	-12.6221
▁Circuit	-12.6221
▁newsprint	-12.6223
▁warns	-12.6226
ov	-12.6227
▁Hav	-12.623
ho	-12.6235
ments	-12.6237
▁cooperative	-12.6238
▁fastest	-12.6238
▁dismiss	-12.624
▁divide	-12.6243
▁sue	-12.6244
▁filling	-12.6244
employment	-12.6246
▁Barclays	-12.6246
12	-12.6252
▁Pharmaceutical	-12.6252
▁Rogers	-12.6255
nd	-12.6256
▁Berlin	-12.6257
four	-12.6262
margin	-12.6263
▁USG	-12.627
▁competitiveness	-12.627
▁Jean	-12.6271
▁Lear	-12.6278
rrived	-12.628
▁Foster	-12.6283
▁Telerate	-12.6285
affecting	-12.6294
▁reviewed	-12.6303
▁intervene	-12.6303
▁Gla	-12.6304
▁exercis	-12.6307
▁backlog	-12.6307
▁performer	-12.6308
etti	-12.6308
▁cocaine	-12.6314
▁squeeze	-12.6321
▁commit	-12.6321
Scott	-12.6322
▁Weinberg	-12.6323
capture	-12.6323
▁Teamsters	-12.6324
▁headline	-12.6326
has	-12.633
▁unilateral	-12.633
sterling	-12.633
firing	-12.633
mon	-12.6331
deficiency	-12.6331
hole	-12.6335
▁painful	-12.6339
▁Nelson	-12.6346
▁Alfred	-12.6346
refusal	-12.6348
ron	-12.635
Field	-12.6353
▁Guarant	-12.6358
▁suburb	-12.6359
ray	-12.636
tex	-12.6362
▁Pri	-12.6363
file	-12.6366
▁Leader	-12.637
1987	-12.6374
Myers	-12.6375
▁Rostenkowski	-12.6377
▁Elders	-12.6377
▁Burger	-12.6377
▁bat	-12.6377
ah	-12.6377
took	-12.6388
▁habit	-12.6389
▁pickup	-12.6396
user	-12.6398
▁identit	-12.6406
▁junior	-12.6408
▁spare	-12.6409
existence	-12.641
▁imagine	-12.641
▁Brook	-12.641
anti	-12.6422
▁Dun	-12.6424
▁arbitration	-12.6424
Brit	-12.6426
▁functions	-12.6429
▁turnover	-12.6432
shoe	-12.6432
ru	-12.6434
ab	-12.6444
▁Venture	-12.6445
▁undervalu	-12.645
▁rhetoric	-12.645
▁Human	-12.6452
▁Oregon	-12.6455
tek	-12.6468
▁Ind	-12.647
▁Gore	-12.6471
▁Tennessee	-12.6471
▁Oak	-12.6472
▁rejection	-12.6473
▁Fisher	-12.6482
saw	-12.6485
▁Charter	-12.6487
▁nonprofit	-12.6488
emphasiz	-12.6492
▁uniform	-12.6503
▁transfers	-12.6508
▁representation	-12.651
listed	-12.6513
▁please	-12.6514
▁Chevrolet	-12.6518
▁Lawyer	-12.6518
achiev	-12.652
▁Vegas	-12.6523
▁unrest	-12.6532
▁influen	-12.6534
▁exclude	-12.6534
▁Employee	-12.6534
corp	-12.6538
▁hourly	-12.6539
▁compil	-12.6547
▁Stockholm	-12.655
▁GenCorp	-12.655
ington	-12.6552
▁sun	-12.6557
▁spell	-12.656
▁minds	-12.6562
benefit	-12.6563
▁amended	-12.6566
▁innocent	-12.6566
Palm	-12.6567
visited	-12.6569
▁wearing	-12.658
dates	-12.6581
socialist	-12.6583
information	-12.6586
▁architect	-12.6598
▁boast	-12.6598
▁Adds	-12.6602
done	-12.6603
▁miner	-12.6605
▁Fields	-12.6606
▁quantit	-12.6607
bias	-12.6613
▁instant	-12.6614
tel	-12.6615
▁Overall	-12.6615
▁Former	-12.6615
▁witnesses	-12.6616
govern	-12.6616
bodie	-12.6618
▁Han	-12.6618
float	-12.6619
▁reiterat	-12.6626
▁chamber	-12.6631
▁harm	-12.6635
▁Jay	-12.6644
vote	-12.6645
▁gainer	-12.6645
▁Already	-12.6646
▁Minn	-12.6653
▁revise	-12.6653
ca	-12.6655
▁conflicts	-12.6657
engineered	-12.6658
sixth	-12.6658
op	-12.6659
▁cubic	-12.6662
▁drastic	-12.6662
▁confrontation	-12.6663
untries	-12.6666
▁Roche	-12.6666
▁assemble	-12.6669
▁toy	-12.6673
offer	-12.6673
8.1	-12.6673
▁Warburg	-12.6678
▁tracks	-12.668
ries	-12.6688
▁automatically	-12.6695
▁leap	-12.6696
bird	-12.6706
▁Conference	-12.6711
▁harsh	-12.6711
rica	-12.6718
▁Lib	-12.6719
▁Stamford	-12.6727
▁privatization	-12.6727
manufactured	-12.673
hood	-12.6734
money	-12.6736
▁Ly	-12.6736
violent	-12.6742
▁Critic	-12.6743
▁premature	-12.6743
cyclical	-12.6743
▁Barbara	-12.6743
▁Morton	-12.6744
▁mess	-12.6746
▁perceived	-12.6747
▁teaching	-12.6754
▁overturn	-12.6754
▁ideal	-12.6756
station	-12.6758
connected	-12.676
▁shops	-12.6762
▁Nat	-12.6766
designate	-12.6767
ese	-12.6772
hum	-12.6772
▁Rorer	-12.6775
▁bars	-12.6777
▁cruise	-12.6779
cur	-12.6782
▁deduct	-12.6783
▁translate	-12.6786
▁unspecifi	-12.6789
ph	-12.679
protein	-12.6792
▁Beatrice	-12.6792
juice	-12.6792
▁Housing	-12.6792
common	-12.6794
bomber	-12.6795
planning	-12.6796
▁stuck	-12.6797
▁historic	-12.6803
▁expos	-12.6803
▁FEDERAL	-12.6808
▁gambling	-12.6808
▁grip	-12.6808
▁Christopher	-12.6808
ucci	-12.6811
cancer	-12.6813
ite	-12.6815
tier	-12.6817
23	-12.6818
▁pose	-12.6819
▁degrees	-12.6822
criticize	-12.6822
▁amendments	-12.6824
hunting	-12.6824
vowed	-12.6825
fare	-12.6827
/2	-12.6827
▁copyright	-12.6831
▁87.5	-12.6832
72	-12.6836
dependence	-12.684
▁wins	-12.684
ility	-12.6843
▁sideline	-12.6846
retirement	-12.6849
oral	-12.685
quest	-12.685
▁diversion	-12.6857
▁mistakes	-12.6858
▁suburban	-12.6859
68	-12.6859
▁answers	-12.6864
11	-12.6865
lum	-12.6866
backs	-12.6872
▁variation	-12.6874
Communist	-12.6875
▁whites	-12.6875
▁bags	-12.6875
ica	-12.6878
▁topic	-12.6879
▁Special	-12.6882
regulated	-12.6884
increase	-12.6886
99	-12.6888
▁conducting	-12.6888
▁Airport	-12.6891
▁mild	-12.6892
▁En	-12.6894
First	-12.6895
▁Mike	-12.6896
Israeli	-12.6901
freight	-12.6902
▁Integrat	-12.6902
▁CFTC	-12.6906
▁Posner	-12.6906
read	-12.6907
ichi	-12.6907
▁retiree	-12.691
tar	-12.6918
▁AMC	-12.6921
▁sight	-12.6925
▁contrar	-12.6925
▁Sprint	-12.6927
Owens	-12.6928
▁governors	-12.6928
lee	-12.6931
▁GAF	-12.694
telephone	-12.6941
firm	-12.6943
▁Su	-12.6943
mut	-12.6945
tennis	-12.6956
▁Amsterdam	-12.6956
▁Professional	-12.6956
word	-12.6959
dict	-12.6961
forming	-12.6964
ig	-12.6964
▁choices	-12.6967
▁upgrade	-12.6969
produce	-12.6969
▁categories	-12.6973
▁Solidarity	-12.6974
screen	-12.6975
0	-12.6976
70	-12.698
▁Des	-12.6982
▁Brooks	-12.6985
addict	-12.6989
▁Appeal	-12.6989
riot	-12.6989
determination	-12.699
IV	-12.699
▁frustration	-12.6991
▁believ	-12.6992
drama	-12.6993
▁orange	-12.6995
record	-12.6999
▁tear	-12.6999
pipe	-12.7
▁specifie	-12.7004
mobile	-12.7005
▁Herbert	-12.7006
▁OSHA	-12.7006
▁adults	-12.7006
▁universities	-12.7006
▁1994	-12.7007
ken	-12.7007
▁purchaser	-12.7008
▁trees	-12.7009
Corning	-12.7017
47	-12.7022
▁featur	-12.7028
jet	-12.7029
▁donation	-12.7037
fulfill	-12.7038
▁Kaufman	-12.7039
▁Municipal	-12.7039
▁external	-12.7039
▁remote	-12.7039
▁Non	-12.7049
visible	-12.7054
journal	-12.7057
▁objectiv	-12.7058
ona	-12.7066
lect	-12.7068
contaminat	-12.7071
Universal	-12.7073
▁liquor	-12.7073
santo	-12.7073
▁prolong	-12.7074
ci	-12.7074
ject	-12.7077
eating	-12.7079
▁revers	-12.7086
phone	-12.7087
▁intermediate	-12.7089
▁Greek	-12.709
▁appealing	-12.7091
▁Holly	-12.7092
bid	-12.7094
links	-12.7098
Forest	-12.7101
again	-12.7101
▁weigh	-12.7102
han	-12.7102
▁deter	-12.7106
▁Braniff	-12.7106
▁Schwab	-12.7106
▁clause	-12.7107
actor	-12.7108
▁cement	-12.7108
▁LO	-12.7109
▁Wal	-12.711
printed	-12.7112
▁persist	-12.7114
tune	-12.7123
▁psychological	-12.7123
▁instruct	-12.7128
help	-12.713
neg	-12.714
neutral	-12.7147
lung	-12.7148
relief	-12.715
ault	-12.715
attack	-12.7153
27	-12.7154
▁endors	-12.7155
▁Polish	-12.7157
▁Metro	-12.7157
▁Cannon	-12.7158
▁beside	-12.7165
▁Mel	-12.7167
▁broadcaster	-12.7173
▁Panamanian	-12.7174
▁clinic	-12.7182
1988	-12.7187
▁270	-12.7188
basket	-12.7191
recogniz	-12.7192
▁smart	-12.7192
strip	-12.7193
▁heading	-12.7195
▁foresee	-12.7198
rock	-12.72
▁stems	-12.7207
Piedmont	-12.7208
▁Holiday	-12.7208
▁Andersen	-12.7208
▁Kopper	-12.7211
▁bureaucrat	-12.7222
▁fraudulent	-12.7225
▁Earning	-12.7225
letting	-12.723
▁Members	-12.7242
▁Unfortunate	-12.7242
▁abrupt	-12.7242
▁Dakota	-12.7242
▁Hungary	-12.7242
▁interstate	-12.7242
resumed	-12.7243
▁Commissioner	-12.7252
▁McCa	-12.7253
mann	-12.7254
▁Gren	-12.7254
▁Arnold	-12.7259
▁imminent	-12.7259
lick	-12.726
len	-12.7261
confirm	-12.7262
▁Kuwaiti	-12.7263
rust	-12.7264
▁Plan	-12.7272
▁Alex	-12.7275
constitution	-12.7276
▁Federation	-12.7276
▁Consider	-12.7276
Banc	-12.7277
▁IRA	-12.7277
lowering	-12.7279
▁exists	-12.7279
170	-12.7281
linger	-12.7286
▁speaker	-12.7293
▁Hyundai	-12.7293
▁jurisdiction	-12.7293
casualty	-12.7294
▁stockbroker	-12.7295
▁cancel	-12.7302
135	-12.7305
▁rebuff	-12.731
fri	-12.7319
plan	-12.7321
needed	-12.7326
▁curtail	-12.7326
▁perspective	-12.7327
▁concentrat	-12.7329
Leo	-12.733
weapons	-12.733
▁Brad	-12.7332
AND	-12.7333
▁authors	-12.7333
▁incorrect	-12.7335
▁franchisee	-12.7338
cream	-12.734
7.50	-12.734
▁wisdom	-12.7345
▁highlight	-12.7347
▁Mason	-12.7349
Fed	-12.736
▁slate	-12.7361
▁disappointment	-12.7362
▁Newark	-12.7363
▁pair	-12.7364
▁cigarettes	-12.7367
▁pharmaceuticals	-12.7367
▁raiders	-12.737
min	-12.7374
ob	-12.7375
qui	-12.7382
consum	-12.7387
▁Steve	-12.7389
▁Policy	-12.7397
▁brisk	-12.7398
removal	-12.7398
improvement	-12.74
▁Out	-12.7406
responding	-12.7407
zer	-12.741
14	-12.7411
▁plot	-12.7412
▁Perspective	-12.7414
▁applie	-12.7421
▁Mills	-12.7425
▁deliberate	-12.7427
46	-12.7427
▁Eugen	-12.7428
alive	-12.7429
ware	-12.7429
▁comprehensive	-12.7431
▁forget	-12.7432
▁Jenr	-12.7434
▁accrued	-12.7435
▁150,000	-12.7437
▁journalists	-12.7445
▁Simmons	-12.7448
▁Nicholas	-12.7449
terrorism	-12.7449
▁Jimmy	-12.7449
▁Women	-12.7449
matur	-12.7452
▁solutions	-12.7454
subsidy	-12.7463
aut	-12.7466
switching	-12.7466
▁entitl	-12.7466
box	-12.7467
yourself	-12.7467
▁advertisement	-12.7468
scal	-12.7469
▁reache	-12.7477
▁preced	-12.7478
cat	-12.7483
▁reconsider	-12.7483
European	-12.7484
possess	-12.7484
▁600,000	-12.7484
▁damp	-12.7486
with	-12.7488
shooting	-12.7493
allocation	-12.7499
shoulder	-12.7502
▁Har	-12.7503
▁Accounting	-12.7503
▁Southmark	-12.7505
▁overtime	-12.7507
too	-12.7516
▁Fu	-12.7517
▁incumbent	-12.7518
▁Neill	-12.7519
awley	-12.7521
border	-12.7527
▁terminated	-12.753
8.75	-12.7531
▁Webb	-12.7535
Eagle	-12.7536
▁Motorola	-12.7536
working	-12.7537
midnight	-12.7537
▁tanks	-12.754
Luc	-12.7547
▁diversify	-12.7554
▁Portland	-12.7554
▁Howell	-12.7555
▁retaliat	-12.7558
▁Sa	-12.756
▁thwart	-12.7561
▁experimental	-12.757
▁entrepreneurs	-12.7571
likelihood	-12.7571
▁Jeffer	-12.758
▁locked	-12.7583
▁vague	-12.7588
bread	-12.7588
▁decree	-12.7589
▁Stanford	-12.7589
▁Review	-12.7589
▁taxpayer	-12.7601
▁Safe	-12.7602
▁paintings	-12.7605
sh	-12.7613
▁shorter	-12.7618
▁seeming	-12.762
ture	-12.7621
▁Ron	-12.7623
▁Ashland	-12.7624
ke	-12.7629
ize	-12.7635
paper	-12.7639
▁Equiti	-12.7639
▁Schwartz	-12.7642
binding	-12.7642
▁royal	-12.7642
rule	-12.7645
meal	-12.7647
Te	-12.7656
▁Thi	-12.766
gel	-12.7662
▁donor	-12.7662
infected	-12.7663
ence	-12.7665
▁toll	-12.7666
▁towns	-12.7669
pin	-12.7672
plate	-12.7674
▁Near	-12.7674
fishing	-12.7675
sound	-12.7676
compatible	-12.7678
▁Staff	-12.7678
▁Amex	-12.7679
▁balanced	-12.7679
▁calculation	-12.768
lawyer	-12.7681
ini	-12.7683
▁Cie	-12.7684
▁boys	-12.7686
▁devoted	-12.7687
▁deduction	-12.7691
▁trace	-12.7692
ious	-12.7696
▁tighter	-12.7698
▁unknown	-12.77
▁presentation	-12.7705
▁governing	-12.7708
▁Europeans	-12.771
Mor	-12.7712
▁Fortune	-12.7714
▁Borg	-12.7716
▁musical	-12.7719
▁Carol	-12.772
January	-12.772
integrated	-12.7722
▁covert	-12.7726
▁Hawaii	-12.7729
Nakasone	-12.7731
▁Greene	-12.7733
▁Cities	-12.7736
▁Hor	-12.7736
march	-12.7748
▁Vancouver	-12.7749
▁Nestle	-12.7749
▁Premier	-12.7749
flier	-12.7752
▁Dae	-12.7754
iest	-12.7755
stages	-12.7757
fec	-12.7759
Tate	-12.7765
▁NCNB	-12.7767
▁envision	-12.777
hook	-12.7771
watch	-12.7772
▁overhead	-12.7779
guidance	-12.7785
▁taught	-12.7787
▁refinery	-12.7788
east	-12.7791
clo	-12.7791
42	-12.7797
ko	-12.7798
ek	-12.7799
aged	-12.78
▁refinancing	-12.7804
▁industrialized	-12.7805
intended	-12.7814
tas	-12.7816
▁syndicat	-12.7819
▁conspir	-12.782
▁Ark	-12.782
▁indefinite	-12.7821
▁Griffin	-12.7821
▁Nuclear	-12.7821
▁scenario	-12.7821
▁niche	-12.7823
▁supple	-12.7839
▁speculators	-12.7841
▁Iron	-12.7845
6.25	-12.7849
Embass	-12.7857
▁Okla	-12.7857
▁Greenwich	-12.7857
▁Suisse	-12.7857
▁Nikk	-12.7858
▁closes	-12.786
emp	-12.7863
▁Games	-12.7867
▁statistical	-12.7874
▁commerce	-12.7875
▁Yale	-12.7875
▁Ruder	-12.7877
ploy	-12.7879
designed	-12.7879
heated	-12.7881
▁Mayor	-12.7883
▁advanc	-12.7884
bra	-12.7884
▁designs	-12.7885
▁Show	-12.789
Mat	-12.7892
▁Rubber	-12.7893
▁analyze	-12.7893
▁chunk	-12.7893
Vermont	-12.7894
pocket	-12.7895
▁spinoff	-12.7895
▁Program	-12.7897
Clark	-12.7898
etna	-12.7899
financing	-12.79
November	-12.79
1,200	-12.7901
ik	-12.7903
▁deploy	-12.7911
▁Kremlin	-12.7912
▁foster	-12.7912
64	-12.7912
3.75	-12.7913
lic	-12.7914
yielding	-12.7918
▁Mann	-12.7922
▁Jew	-12.7923
▁specialized	-12.7928
▁drain	-12.793
ky	-12.7931
▁Norway	-12.7931
hell	-12.7934
authorization	-12.7934
▁compensate	-12.7937
dia	-12.7938
▁Yama	-12.7938
graphics	-12.7944
▁Construction	-12.7948
▁infection	-12.7949
▁cleanup	-12.7951
▁plain	-12.7957
▁scholar	-12.7963
licensed	-12.7964
grass	-12.7971
luck	-12.7974
arts	-12.7976
check	-12.7978
Tel	-12.798
▁Madi	-12.7982
▁dissent	-12.7982
▁unwilling	-12.7985
winning	-12.7988
hotel	-12.7991
▁Em	-12.7991
breath	-12.7993
New	-12.7993
ban	-12.7996
▁conversation	-12.8001
depth	-12.8003
▁accompany	-12.8003
▁Knight	-12.8005
4.50	-12.8005
▁loose	-12.8006
hi	-12.801
science	-12.802
▁Rochester	-12.8022
▁defraud	-12.8022
par	-12.8023
five	-12.8024
▁cry	-12.8027
nor	-12.8033
▁superpower	-12.8035
▁Stewart	-12.804
▁beautiful	-12.804
▁Decker	-12.804
▁Comex	-12.804
3.50	-12.8045
▁sinking	-12.8048
ipped	-12.8051
owitz	-12.8058
evil	-12.8058
▁Kroger	-12.8059
▁Square	-12.8059
▁parallel	-12.8059
▁delegation	-12.8059
▁pet	-12.8064
52	-12.8078
evaluation	-12.8083
ible	-12.8086
▁immunit	-12.8096
▁Police	-12.8096
8.25	-12.8103
document	-12.8107
▁175	-12.8111
say	-12.8112
▁Arkansas	-12.8114
▁Sumitomo	-12.8114
hrew	-12.8115
▁deem	-12.8115
racketeering	-12.8133
▁multinational	-12.8135
▁digital	-12.8136
hit	-12.8137
▁replied	-12.8138
▁Connor	-12.814
mate	-12.8141
▁Tiger	-12.8151
▁Margaret	-12.8151
you	-12.8153
vehicle	-12.8155
▁homeless	-12.8158
▁waiver	-12.8159
wall	-12.8161
▁Macy	-12.8166
▁exhibit	-12.8167
▁Liberty	-12.817
▁insurgent	-12.817
▁expression	-12.8173
ountain	-12.8175
South	-12.8176
▁buildup	-12.8178
▁Tal	-12.8179
▁infusion	-12.818
haul	-12.8181
▁penn	-12.8184
books	-12.8188
▁beneficial	-12.8189
▁obscur	-12.8189
manager	-12.8191
racing	-12.82
two	-12.8203
▁Proxmire	-12.8208
clock	-12.8209
examination	-12.8211
▁Plains	-12.8211
ker	-12.8213
▁Chap	-12.8214
▁unrelated	-12.8218
being	-12.8225
▁Electronic	-12.8226
McGraw	-12.8227
▁Waste	-12.8227
▁cheer	-12.8236
80,000	-12.8244
▁Adviser	-12.8245
EC	-12.8246
liberalization	-12.8246
▁passive	-12.8246
▁40-	-12.8246
▁reservations	-12.8248
xon	-12.8249
▁garden	-12.825
26	-12.8251
covered	-12.8254
▁Walt	-12.826
▁1968	-12.8263
▁Taipei	-12.8264
Marxist	-12.8265
▁Friedman	-12.8267
▁farmer	-12.8272
ug	-12.8276
▁sooner	-12.828
citizen	-12.8283
▁persistent	-12.8283
▁variable	-12.8284
▁premier	-12.8285
material	-12.8289
▁scrap	-12.8291
▁Lar	-12.8292
▁drinking	-12.8298
▁register	-12.83
▁Guard	-12.8301
▁unfortunate	-12.8302
fee	-12.8304
fetch	-12.8304
▁realistic	-12.8305
▁18-	-12.8307
▁Nations	-12.8311
lsewhere	-12.8319
▁Craig	-12.8321
▁convenience	-12.8321
▁Sell	-12.8323
▁Da	-12.8324
self	-12.8328
withholding	-12.8329
▁Gree	-12.8331
▁clone	-12.8331
US	-12.8333
Fort	-12.8333
▁bondholder	-12.8335
▁genuine	-12.834
▁Governor	-12.834
▁Grumman	-12.834
enemy	-12.834
▁wonderful	-12.8341
▁anniversary	-12.8343
FM	-12.8347
▁Whi	-12.8347
▁significan	-12.8349
▁toys	-12.8358
Busch	-12.8359
▁Lipper	-12.8359
▁Coastal	-12.836
▁Holder	-12.836
▁researcher	-12.8361
▁cooperat	-12.8362
▁critic	-12.8369
▁Pen	-12.8375
valuation	-12.8378
▁TRW	-12.8378
▁PepsiCo	-12.8378
severance	-12.8378
▁Operating	-12.8378
▁assignment	-12.8379
gallon	-12.8381
asset	-12.8391
9.75	-12.8395
▁presum	-12.8395
▁thanks	-12.8396
▁innovation	-12.8397
▁placing	-12.8397
▁Ireland	-12.8397
efficient	-12.84
▁hurdle	-12.8401
▁Custom	-12.8403
Bow	-12.8408
illness	-12.8416
▁proceeding	-12.8416
▁Collins	-12.8416
▁bail	-12.8424
post	-12.8428
▁prospectus	-12.8431
sank	-12.8431
digit	-12.8432
▁trips	-12.8434
▁survival	-12.8436
▁Almost	-12.8436
hart	-12.8437
established	-12.8437
▁Ne	-12.8437
▁underground	-12.8438
Share	-12.8442
▁sad	-12.8451
▁disappear	-12.8453
▁Doe	-12.8454
imp	-12.8454
▁Pierce	-12.8455
▁Anglo	-12.8455
▁infant	-12.8455
opt	-12.8455
▁importer	-12.8456
▁endorsement	-12.8456
7.75	-12.8456
▁drill	-12.8457
▁Ala	-12.8457
▁Broker	-12.8459
▁tripled	-12.8463
▁underscore	-12.8468
▁PAC	-12.8473
▁Wasser	-12.8474
hits	-12.8475
▁dismissal	-12.8475
▁Ted	-12.8479
ich	-12.848
employee	-12.8492
EL	-12.8493
▁Partnership	-12.8494
▁1971	-12.8498
▁Pope	-12.8499
▁flows	-12.8505
roll	-12.8508
shore	-12.8512
▁Mideast	-12.8513
▁AZT	-12.8513
Card	-12.8521
but	-12.8524
Donald	-12.8524
▁subsidize	-12.8527
▁115	-12.8528
lending	-12.8529
▁prosper	-12.8532
▁accommodate	-12.8532
Texas	-12.8543
RI	-12.8548
fed	-12.8548
▁outline	-12.855
▁Brock	-12.855
▁admitt	-12.8551
▁Mulroney	-12.8552
aff	-12.8553
normal	-12.8556
mini	-12.856
branch	-12.856
▁Petro	-12.8564
logical	-12.8567
rose	-12.8569
▁Suez	-12.8573
▁disagreement	-12.8574
tube	-12.8576
spun	-12.8578
▁calendar	-12.859
▁tires	-12.8593
▁painting	-12.8593
supercomputer	-12.8593
director	-12.8593
▁formation	-12.8593
resource	-12.8595
educated	-12.8595
▁Edwards	-12.8597
layer	-12.86
▁enthusiastic	-12.8608
twist	-12.8609
▁Puert	-12.8611
▁Hammer	-12.8612
▁sometime	-12.8613
▁Ver	-12.8617
▁achievement	-12.8617
assembl	-12.8618
▁PRI	-12.8619
crime	-12.8623
worker	-12.8625
video	-12.8626
dai	-12.8629
▁Hertz	-12.863
defending	-12.8631
▁11.5	-12.8632
▁initiate	-12.8635
▁Bre	-12.8635
▁Colombia	-12.8644
preparation	-12.8653
counted	-12.8654
pressure	-12.8656
search	-12.8658
fuel	-12.8659
▁1998	-12.866
▁visitors	-12.866
▁commander	-12.8662
Cook	-12.8663
ome	-12.8663
▁Advertising	-12.8669
▁suspicion	-12.8669
▁Perelman	-12.8669
▁excuse	-12.8669
▁Cle	-12.867
▁Fult	-12.867
▁26-	-12.8677
pulling	-12.8677
mm	-12.868
▁Radio	-12.868
82	-12.8683
▁honest	-12.8684
resident	-12.8688
▁slumped	-12.8688
▁Audi	-12.8688
▁Should	-12.8689
▁mainstream	-12.8689
▁1967	-12.8689
tall	-12.8692
flight	-12.8694
▁complet	-12.8694
▁Plann	-12.8696
tended	-12.8698
▁Shaw	-12.8698
first	-12.87
▁inner	-12.8706
▁interbank	-12.8709
▁Olson	-12.8709
Iranian	-12.8714
▁embarrass	-12.872
fle	-12.8721
unconstitutional	-12.8728
▁superconductor	-12.8728
▁Rico	-12.8731
▁Open	-12.8732
▁depart	-12.8737
▁addressed	-12.8737
▁102	-12.8743
▁Laws	-12.8743
▁Urban	-12.8744
meets	-12.8746
rum	-12.8747
▁thorough	-12.8748
▁Alabama	-12.8748
▁arrival	-12.8748
▁reversal	-12.8749
tim	-12.8749
▁550	-12.8757
▁OF	-12.876
▁Pi	-12.876
joy	-12.8762
qua	-12.8766
shell	-12.8769
aims	-12.877
▁joke	-12.877
owes	-12.8772
▁attraction	-12.8773
▁smile	-12.8778
▁nose	-12.8781
▁Brooklyn	-12.8788
▁Everybody	-12.8788
▁Abrams	-12.8789
education	-12.879
▁integrity	-12.879
▁Interco	-12.879
▁rebuild	-12.8794
ups	-12.8802
alike	-12.8807
▁adapt	-12.8807
▁Pepsi	-12.8807
mnesty	-12.8807
▁Semiconductor	-12.8807
partisan	-12.8808
▁McFarlane	-12.8808
▁repeat	-12.8811
▁1930	-12.8812
▁Production	-12.8812
plague	-12.8814
▁consult	-12.8823
athlete	-12.8825
6.75	-12.8825
▁hopeful	-12.8826
▁avert	-12.8827
▁moratorium	-12.8827
chapter	-12.8827
flat	-12.8831
job	-12.8833
premium	-12.8836
▁editors	-12.8841
▁Mal	-12.8847
▁Mitterrand	-12.8847
▁Warsaw	-12.8848
▁elite	-12.8849
fu	-12.885
▁nurse	-12.885
▁golden	-12.8851
Europe	-12.8854
▁Ku	-12.8856
▁MD	-12.8857
battered	-12.8867
preneur	-12.8867
▁diversification	-12.8868
▁claimants	-12.8868
▁tenure	-12.8868
▁innovative	-12.887
fin	-12.8872
color	-12.8874
32	-12.8876
AN	-12.8882
baum	-12.8885
▁Macintosh	-12.8888
▁Johnston	-12.8897
▁retir	-12.8897
▁approache	-12.8899
induce	-12.8906
grown	-12.8907
▁steal	-12.8907
manipulation	-12.8908
▁Fifth	-12.8908
▁3-	-12.8908
▁Division	-12.8908
▁Academy	-12.8909
▁distributors	-12.891
▁regardles	-12.8912
▁Cox	-12.8915
wheel	-12.892
▁woe	-12.8924
▁Elizabeth	-12.8928
▁Initial	-12.8928
▁mirror	-12.8928
▁confused	-12.8932
39	-12.8936
fo	-12.8936
▁collective	-12.8938
ue	-12.8938
demand	-12.894
metal	-12.8941
checking	-12.8943
▁Music	-12.8946
conscious	-12.8947
▁Result	-12.8948
subsidiz	-12.8949
▁Shareholder	-12.8951
▁deteriorat	-12.8963
act	-12.8964
▁pioneer	-12.8968
Family	-12.8968
▁bipartisan	-12.8968
▁segments	-12.8971
▁somewhere	-12.8975
approval	-12.8981
▁grower	-12.8982
▁visiting	-12.8982
▁Zeni	-12.8986
▁bother	-12.8988
▁Honeywell	-12.8989
▁breakthrough	-12.8989
▁machinist	-12.899
▁everywhere	-12.8992
▁photo	-12.8992
53	-12.9005
option	-12.9006
▁Idaho	-12.9009
▁Staley	-12.9009
▁Pearson	-12.9009
▁undisclos	-12.9009
▁fairness	-12.9012
▁Min	-12.9012
rself	-12.9015
▁Project	-12.9018
MA	-12.902
▁adoption	-12.9021
▁depreciation	-12.9029
BANK	-12.903
▁Garden	-12.9031
▁questioning	-12.9037
speculat	-12.904
▁Ros	-12.9041
yo	-12.9041
▁Mc	-12.9048
▁implemented	-12.9049
tip	-12.9052
▁camps	-12.9058
Ten	-12.906
▁similarly	-12.906
▁Hard	-12.9068
▁discounted	-12.9068
▁Rome	-12.907
▁Iacocca	-12.907
▁Medicaid	-12.907
ircraft	-12.9076
▁altogether	-12.9079
▁650	-12.9083
▁hide	-12.9085
enter	-12.9086
▁belong	-12.9087
zo	-12.909
provincial	-12.909
▁Private	-12.9091
▁blunt	-12.9091
▁Chancellor	-12.9091
▁Software	-12.9091
▁religion	-12.9091
yellow	-12.9091
zing	-12.9091
▁Tandy	-12.9091
tail	-12.9095
Canadian	-12.9096
▁breakup	-12.9097
ff	-12.9108
Prince	-12.9111
▁microprocessor	-12.9111
jewelry	-12.9111
lib	-12.9112
▁108	-12.9112
▁memori	-12.9113
▁journalist	-12.9114
▁postal	-12.9118
▁possibilit	-12.9127
take	-12.9131
▁define	-12.9131
▁PLO	-12.9132
automation	-12.9132
▁approvals	-12.9133
▁bears	-12.9135
Day	-12.9135
▁channels	-12.9136
istic	-12.9137
▁Marvi	-12.9137
Chem	-12.9138
▁yes	-12.9139
▁unhapp	-12.9141
▁peer	-12.9143
70,000	-12.9145
▁scarce	-12.9147
financial	-12.915
nominated	-12.915
NATIONAL	-12.9152
▁veterans	-12.9154
▁Wag	-12.9156
▁elevat	-12.9158
debenture	-12.9158
ebuck	-12.9159
cleaning	-12.9159
200	-12.916
▁incomes	-12.917
▁Salinas	-12.9173
▁GAO	-12.9173
▁Typical	-12.9174
▁drag	-12.9174
▁mothers	-12.9174
▁comfort	-12.9174
▁Weiss	-12.9175
▁shifting	-12.9182
ock	-12.9187
▁condemn	-12.9194
▁issuance	-12.9194
Burns	-12.9198
▁boot	-12.9202
dragg	-12.9203
trans	-12.921
▁flash	-12.9214
▁Graham	-12.9215
Broadway	-12.9215
▁trimmed	-12.9215
▁hamper	-12.9216
Stock	-12.9216
dust	-12.9218
cock	-12.9218
▁Corn	-12.9227
▁sour	-12.9229
IT	-12.9235
amount	-12.9236
▁tankers	-12.9236
▁anxious	-12.9237
chest	-12.9237
▁unnecessar	-12.9238
▁pursuit	-12.9239
matched	-12.9252
▁posting	-12.9252
▁Citizens	-12.9252
▁Na	-12.9254
▁garbage	-12.9256
5/16	-12.9256
▁Publishing	-12.9257
▁waters	-12.9257
▁concentration	-12.9259
degree	-12.926
▁remarkabl	-12.9272
▁Morrison	-12.9272
▁affirm	-12.9276
limitation	-12.9276
tent	-12.928
pilot	-12.9283
▁ethical	-12.9283
xo	-12.929
impose	-12.929
▁clash	-12.9291
▁Fairchild	-12.9292
34	-12.9292
highest	-12.9294
▁1995	-12.9294
▁Karl	-12.9295
▁Judicia	-12.9298
▁stockpile	-12.9298
contracting	-12.9298
▁Nunn	-12.9298
▁jobless	-12.9299
▁priorities	-12.9299
fixing	-12.9299
aramount	-12.9304
31	-12.9307
ile	-12.9308
▁consolidate	-12.9312
▁swell	-12.9314
▁profession	-12.9316
Fujitsu	-12.9319
▁HBO	-12.9319
▁trustees	-12.9319
rigid	-12.9319
▁Deng	-12.932
▁rob	-12.9323
fer	-12.9326
NA	-12.9326
enberg	-12.9333
▁loud	-12.9335
cars	-12.9335
LE	-12.9345
▁Ball	-12.9351
▁recorder	-12.9356
▁readi	-12.9359
▁Bethlehem	-12.9361
▁Marietta	-12.9361
▁Shanghai	-12.9361
▁conceal	-12.9361
▁Haft	-12.9361
del	-12.9361
▁tourists	-12.9367
▁installation	-12.9367
▁Op	-12.937
standard	-12.9372
Pontiac	-12.9382
▁Investigation	-12.9382
▁NEC	-12.9383
Age	-12.9387
plo	-12.9391
▁shopper	-12.9391
▁exit	-12.9393
▁prompting	-12.9397
chi	-12.9398
▁cocoa	-12.9403
▁personality	-12.9411
dent	-12.9412
▁disks	-12.9414
shi	-12.9417
▁salesman	-12.9418
▁hidden	-12.9424
HM	-12.9425
▁MCorp	-12.9426
consulting	-12.9426
mbi	-12.9426
engineering	-12.9428
▁50-	-12.9428
ridge	-12.9431
destructi	-12.9433
EM	-12.9434
posed	-12.9437
▁Fall	-12.9442
Test	-12.9445
▁homosexual	-12.9446
▁random	-12.9446
▁Bernstein	-12.9446
▁Fireman	-12.9446
▁distinction	-12.9447
rolling	-12.9458
▁dispos	-12.9469
▁McKin	-12.947
▁determin	-12.9478
rear	-12.948
▁Les	-12.9481
▁Lane	-12.9482
wrote	-12.9486
▁wars	-12.9487
▁Ultimate	-12.9488
▁disadvantage	-12.9488
▁NWA	-12.9489
▁Orion	-12.949
button	-12.9495
buses	-12.9496
affiliate	-12.9498
▁dose	-12.95
▁Upjohn	-12.9509
▁crazy	-12.9509
▁phrase	-12.9509
▁Tampa	-12.951
▁structural	-12.951
▁ICN	-12.951
hitting	-12.9511
▁Orange	-12.9515
▁Salt	-12.9516
sits	-12.9517
▁Sri	-12.952
▁RICO	-12.9531
Craft	-12.9531
dynamic	-12.9532
▁Levy	-12.9532
Ferri	-12.9533
disciplin	-12.9533
▁Copper	-12.9533
▁Arm	-12.9536
▁Independent	-12.954
▁Main	-12.9548
▁kitchen	-12.9552
▁Buick	-12.9552
▁Yes	-12.9553
▁Building	-12.9553
▁INS	-12.9554
bury	-12.956
▁Eric	-12.9561
▁hail	-12.9561
ven	-12.9562
▁Cel	-12.9563
58	-12.9571
LB	-12.9572
▁voluntari	-12.9574
Montedison	-12.9574
ynex	-12.9575
taken	-12.9575
▁recalled	-12.9585
▁underwrite	-12.9587
▁raider	-12.9588
from	-12.9595
▁ambition	-12.9595
▁Brennan	-12.9596
▁feelings	-12.9597
evaluat	-12.9599
▁liquidate	-12.9599
termination	-12.9602
Mart	-12.9603
▁beating	-12.9612
▁Calgary	-12.9617
▁offense	-12.9617
▁lumber	-12.9617
screening	-12.9618
▁prisoners	-12.9618
SE	-12.9627
▁tap	-12.9632
▁Syria	-12.9632
stepping	-12.9632
French	-12.9635
▁Giuliani	-12.9639
▁Biden	-12.9639
▁accuse	-12.9644
▁Gil	-12.9646
ER	-12.9647
reported	-12.965
lacks	-12.9652
▁Book	-12.9656
tually	-12.9657
▁Beirut	-12.966
▁invasion	-12.966
▁provoke	-12.966
▁Chirac	-12.966
▁Relations	-12.966
Bat	-12.9661
lifetime	-12.9665
▁revolving	-12.9668
disturb	-12.9671
DC	-12.9672
guilder	-12.9673
▁crashed	-12.9675
▁guns	-12.9679
▁Rat	-12.968
▁phenomenon	-12.9682
diamond	-12.9682
proclaim	-12.9682
▁coordinate	-12.9683
▁tapes	-12.9696
▁Sara	-12.9702
urveillance	-12.9704
▁Harvey	-12.9704
▁McCart	-12.9704
▁basketball	-12.9704
1/16	-12.9704
fa	-12.971
▁Monte	-12.9713
▁liquidat	-12.9713
▁Strauss	-12.9714
expensive	-12.9718
▁inherent	-12.9726
▁imposing	-12.9726
ag	-12.9727
Rand	-12.9728
copi	-12.9731
▁song	-12.9734
rl	-12.9747
Cadillac	-12.9748
▁Charlotte	-12.9748
▁Vienna	-12.9748
stretch	-12.9749
duck	-12.9754
▁Buy	-12.9754
▁folks	-12.9755
▁expose	-12.9757
▁INF	-12.9767
tery	-12.9768
▁McD	-12.9768
▁lobbyists	-12.9768
void	-12.9769
▁LTD	-12.977
▁ingredient	-12.977
▁naval	-12.977
▁hammer	-12.977
▁percent	-12.9771
▁balk	-12.9772
▁24-	-12.9775
▁reserved	-12.9777
▁enroll	-12.9783
▁Belt	-12.9787
▁knock	-12.9787
▁Start	-12.979
mac	-12.9791
▁Kirk	-12.9791
carry	-12.9794
▁context	-12.9795
seal	-12.9798
▁shoot	-12.9811
anford	-12.9814
egotiable	-12.9814
▁Hongkong	-12.9814
▁wholly	-12.9815
ade	-12.9815
▁lesser	-12.9819
availabilit	-12.9821
carpet	-12.9824
radiation	-12.9826
▁Berke	-12.9827
▁Societ	-12.9835
Irwin	-12.9836
▁Apollo	-12.9836
sentencing	-12.9836
captured	-12.9837
▁Bally	-12.9842
▁Ad	-12.9846
▁hostage	-12.9848
shirt	-12.9848
▁diet	-12.9852
stabiliz	-12.9852
▁Spring	-12.9852
▁103	-12.9853
▁convincing	-12.9858
▁beauty	-12.9858
cancellation	-12.9858
shield	-12.9858
champion	-12.9867
repaid	-12.9867
▁cope	-12.9867
▁proponent	-12.9869
CI	-12.987
▁13.5	-12.9873
▁Winter	-12.9881
▁seminar	-12.9881
▁Kerr	-12.9883
▁fires	-12.9887
▁Lauren	-12.9888
shirts	-12.989
▁trucking	-12.989
February	-12.9902
▁Ernest	-12.9902
▁Stuart	-12.9902
▁Dingell	-12.9902
▁Assembly	-12.9902
▁Tisch	-12.9902
skilled	-12.9903
▁republic	-12.9905
▁mailing	-12.9905
▁Mines	-12.9906
spoken	-12.9906
prop	-12.9908
▁distress	-12.9909
▁contender	-12.9909
mask	-12.9914
▁Machine	-12.9915
▁Toy	-12.9918
▁uncover	-12.9922
wept	-12.9924
▁Geller	-12.9924
▁Mineral	-12.9925
Bradley	-12.9925
▁exhibition	-12.9927
▁Metal	-12.9928
▁arena	-12.9928
▁Buck	-12.9931
▁instructions	-12.9934
rap	-12.9939
amin	-12.9947
affected	-12.9947
▁Unix	-12.9948
▁Bio	-12.9954
1.125	-12.9956
▁240	-12.996
therapy	-12.9963
smokers	-12.9966
75,000	-12.9967
billion	-12.9968
▁reception	-12.9968
ction	-12.9969
owners	-12.997
live	-12.997
▁applaud	-12.9973
pie	-12.9973
bull	-12.9974
▁refinance	-12.9975
▁Falcon	-12.9979
▁lights	-12.9983
mel	-12.9987
▁questionable	-12.9989
nard	-12.9989
▁Exploration	-12.9992
▁forecaster	-12.9993
shocked	-12.9995
parent	-12.9997
max	-12.9999
▁quotation	-13
▁experienc	-13
▁Action	-13.0001
▁appreciate	-13.0001
club	-13.0005
▁undertake	-13.0005
▁Retail	-13.0005
▁burned	-13.0006
revolutionar	-13.0006
period	-13.0011
phones	-13.0012
▁eastern	-13.0014
▁terrible	-13.0014
▁Nation	-13.0015
▁refiner	-13.0016
▁protectionism	-13.0016
aiwa	-13.0022
tact	-13.0026
SA	-13.0026
▁embrace	-13.0027
AR	-13.0033
▁charm	-13.0034
Travel	-13.0036
5.25	-13.0037
▁Boone	-13.0039
▁meaningful	-13.004
-4	-13.0042
▁minimal	-13.0047
lined	-13.005
laying	-13.0053
:01	-13.0059
▁Caribbean	-13.0059
▁catastrophic	-13.0059
▁Mead	-13.0066
▁Mars	-13.0071
capita	-13.0074
shy	-13.0077
pri	-13.0078
▁outperform	-13.008
+	-13.0082
▁cosmetics	-13.0082
▁dilemma	-13.0082
▁Ge	-13.0084
parliamentar	-13.0086
▁refunding	-13.0088
▁Franc	-13.0088
▁clou	-13.0089
tan	-13.0089
▁promotional	-13.0093
▁swaps	-13.0095
▁delight	-13.0097
▁brewer	-13.0098
▁map	-13.0101
container	-13.0102
▁jetliner	-13.0104
▁Penney	-13.0105
▁Shop	-13.0106
▁transmit	-13.0108
▁notifi	-13.0108
▁correspond	-13.0112
operating	-13.0115
cents	-13.0116
Laurent	-13.0124
ina	-13.0127
Bristol	-13.0127
▁alert	-13.0128
▁Rice	-13.0129
spy	-13.013
▁Hoffmann	-13.0131
grave	-13.0132
▁Susan	-13.0133
▁Tuc	-13.0136
▁rulings	-13.0139
▁girls	-13.0139
roles	-13.0142
backer	-13.0145
▁dogs	-13.0147
▁Triangle	-13.015
▁Circle	-13.015
▁Political	-13.0151
▁disorder	-13.0151
coin	-13.0151
NDON	-13.0153
don	-13.0153
ong	-13.0159
seventh	-13.0159
tric	-13.0161
▁Bid	-13.0166
▁Wild	-13.0168
▁Reuter	-13.0173
▁characteristic	-13.0173
▁cheat	-13.0178
Marcus	-13.0178
throwing	-13.0182
▁Goldberg	-13.0186
▁circulat	-13.019
gauge	-13.0193
▁fraction	-13.0193
▁defer	-13.0194
▁sacrifice	-13.0196
▁Arrow	-13.0196
▁ranges	-13.0198
riding	-13.0198
whi	-13.0199
intensive	-13.02
roof	-13.0202
▁Value	-13.0209
▁Reebok	-13.0219
▁historian	-13.0219
▁Clayton	-13.0219
▁CSX	-13.0219
▁selective	-13.0219
▁Dre	-13.0222
▁resemble	-13.0224
▁Squi	-13.0225
▁parks	-13.023
▁CP	-13.0236
figure	-13.0238
sweet	-13.0239
▁Quaker	-13.0242
▁averaging	-13.0242
▁Madrid	-13.0242
Meyer	-13.0245
mi	-13.0252
▁soil	-13.0252
ANC	-13.0257
▁containers	-13.0258
painted	-13.0259
now	-13.0261
seed	-13.0261
▁Procter	-13.0265
▁pesticide	-13.0265
▁Indianapolis	-13.0265
mour	-13.0265
pleasure	-13.0273
▁fluctuations	-13.0273
▁surround	-13.0276
atory	-13.0282
▁Mario	-13.0283
▁Takeshita	-13.0288
▁Children	-13.0288
▁Nashville	-13.0288
Wellcome	-13.0288
logic	-13.0288
Western	-13.0293
usse	-13.0295
ves	-13.0298
▁organize	-13.0301
AL	-13.0301
▁races	-13.0302
labs	-13.0303
▁Wend	-13.0307
▁promis	-13.0309
▁reaffirm	-13.031
▁microwave	-13.0311
leased	-13.0312
hog	-13.0315
ough	-13.0319
construction	-13.0323
▁doub	-13.0324
▁1996	-13.0324
get	-13.0329
late	-13.033
industrial	-13.0332
diagnostic	-13.0334
▁Forstmann	-13.0334
▁Terry	-13.0334
▁ocean	-13.0334
breakfast	-13.0334
▁NSC	-13.0334
▁bunch	-13.0335
▁Chamber	-13.0336
▁cure	-13.0337
▁soften	-13.0337
length	-13.0337
5.50	-13.0338
▁Rio	-13.0343
ON	-13.0345
▁Propert	-13.0353
▁magic	-13.0357
▁Kem	-13.0357
▁videocassette	-13.0357
thick	-13.0357
portrait	-13.0357
▁Byrd	-13.0357
nickel	-13.0358
▁wounded	-13.036
lawn	-13.0364
▁Jane	-13.0364
governmental	-13.0368
▁Owen	-13.0374
Nazi	-13.0374
▁outrage	-13.0374
▁Angola	-13.0376
▁Austria	-13.0376
bor	-13.038
▁Managua	-13.0381
▁spouse	-13.0381
▁Irvine	-13.0381
State	-13.0384
9.50	-13.0385
lets	-13.0388
▁upgraded	-13.0397
21	-13.0397
▁coins	-13.0402
▁Individual	-13.0404
▁appetite	-13.0404
▁revamp	-13.0404
▁Elliott	-13.0406
▁awful	-13.0408
▁pursued	-13.041
▁2017	-13.0412
fact	-13.0415
▁taxation	-13.0421
▁constraint	-13.0427
▁Nothing	-13.0427
▁Interior	-13.0427
▁Fiat	-13.0428
7.25	-13.0429
▁Reform	-13.0429
▁Censu	-13.043
▁VW	-13.0431
stroke	-13.0432
▁hover	-13.0432
▁glut	-13.0435
buy	-13.0443
▁Hi	-13.0444
exile	-13.0444
train	-13.0446
North	-13.0448
tron	-13.045
▁52-	-13.045
▁windfall	-13.0451
gi	-13.0454
▁Love	-13.0455
soap	-13.0456
▁230	-13.0458
servic	-13.0462
▁Kell	-13.0468
▁Dillon	-13.0474
fiduciary	-13.0475
▁slim	-13.0478
▁grab	-13.0479
film	-13.0479
▁calculate	-13.0482
▁expir	-13.0485
resources	-13.0485
initiat	-13.049
ev	-13.0496
▁Anheuser	-13.0498
transit	-13.0498
lerating	-13.0499
valve	-13.0499
▁realiz	-13.05
▁debut	-13.05
▁Ever	-13.0502
Price	-13.0504
bul	-13.0514
▁Between	-13.0522
▁ESOP	-13.0522
▁jazz	-13.0522
▁Equitable	-13.0522
▁Louisville	-13.0522
▁ozone	-13.0523
▁Bancshare	-13.0523
▁MX	-13.0524
trap	-13.0528
cher	-13.0528
gang	-13.0538
fr	-13.0538
okol	-13.0542
matching	-13.0543
▁Armed	-13.0545
Mirror	-13.0545
tuition	-13.0545
▁nominal	-13.0545
McLe	-13.0546
▁Prior	-13.0547
▁tenants	-13.0553
▁Hay	-13.0553
▁Kev	-13.0555
beneficiar	-13.0566
▁contemporary	-13.0569
▁customs	-13.0569
▁priest	-13.0569
▁Thailand	-13.0569
separation	-13.0569
Gene	-13.0571
▁Technical	-13.0573
▁lessen	-13.0574
▁briefing	-13.0574
▁Matthews	-13.0576
▁Options	-13.0577
▁capitalize	-13.0581
▁athletic	-13.0593
▁fend	-13.0593
▁Newspaper	-13.0593
warfare	-13.0593
▁objectives	-13.0594
▁trademark	-13.0599
▁Add	-13.0602
▁ratios	-13.0603
▁erupt	-13.0613
▁literature	-13.0617
▁literary	-13.0617
▁incline	-13.0618
assembly	-13.0624
▁booster	-13.0625
Lorenz	-13.0626
fabric	-13.0626
▁devaluation	-13.0628
president	-13.0631
▁prosperity	-13.0641
restrictive	-13.0643
ano	-13.0651
▁bombing	-13.0658
6.50	-13.066
400	-13.0662
Stalin	-13.0665
▁chronic	-13.0667
▁crush	-13.0669
▁collector	-13.0671
tandstill	-13.0673
staff	-13.0675
swap	-13.0675
▁misstat	-13.0683
▁performances	-13.0683
▁Wars	-13.0685
▁anxiet	-13.0689
▁Cadbury	-13.0689
▁Heavy	-13.0689
damaging	-13.0689
▁Coleco	-13.0689
publishing	-13.0703
stamp	-13.0708
▁partially	-13.0709
▁Tobacco	-13.0713
▁invitation	-13.0713
▁electoral	-13.0713
▁deeper	-13.072
then	-13.0733
Castro	-13.0737
bash	-13.0739
log	-13.074
hoe	-13.074
▁passe	-13.0747
▁windows	-13.0748
owe	-13.0756
return	-13.0758
▁videotape	-13.0761
▁labels	-13.0762
▁Castle	-13.0763
▁comprise	-13.0768
▁Saint	-13.0769
▁clerk	-13.077
kins	-13.077
▁choos	-13.0771
minicomputer	-13.0774
quo	-13.0783
▁Tan	-13.0784
▁Mid	-13.0785
transplant	-13.0785
▁modifie	-13.0786
▁Fitz	-13.0788
▁advis	-13.0798
▁Had	-13.0801
▁refine	-13.0805
▁Visa	-13.0807
sch	-13.0808
▁triumph	-13.081
▁Nigeria	-13.081
▁Omni	-13.081
▁commuter	-13.081
theft	-13.0811
solicitation	-13.0813
inflated	-13.0814
▁Giant	-13.0815
alien	-13.0815
mell	-13.0818
road	-13.0819
▁laugh	-13.0823
sco	-13.0823
Sosn	-13.0824
ante	-13.0827
▁crews	-13.083
▁Hoechst	-13.0834
▁Montana	-13.0834
▁Placid	-13.0834
▁virtue	-13.0834
▁Perry	-13.0835
▁Fourth	-13.0835
▁embassy	-13.0835
▁Sto	-13.085
▁Sports	-13.0852
incorporate	-13.0855
inches	-13.0857
TI	-13.0857
▁Tyson	-13.0859
bster	-13.0859
ification	-13.0862
▁bribe	-13.0865
▁examples	-13.0867
▁sat	-13.0872
▁enabl	-13.0873
▁Page	-13.0879
▁unload	-13.0883
execution	-13.0883
▁treasury	-13.0883
depression	-13.0884
lad	-13.0887
▁Metals	-13.0893
rand	-13.0894
dial	-13.0897
▁Anti	-13.0899
cop	-13.0902
boom	-13.0905
▁loophole	-13.0908
▁Gamble	-13.0908
ige	-13.0908
▁Coors	-13.0909
▁Order	-13.0917
▁operational	-13.0922
shine	-13.0927
entitie	-13.0932
▁MORTGAGE	-13.0932
▁interior	-13.0932
▁shelve	-13.0932
▁Tony	-13.0933
▁workplace	-13.0936
patch	-13.0938
Co	-13.0945
ny	-13.0951
opens	-13.0952
taker	-13.0953
EN	-13.0954
▁Along	-13.0955
▁Jaguar	-13.0957
▁Mazda	-13.0957
▁700,000	-13.0957
release	-13.0959
▁Shu	-13.0961
▁columnist	-13.0961
▁breakdown	-13.0966
▁couples	-13.0967
▁Po	-13.0969
▁associations	-13.097
▁124	-13.0971
ika	-13.0973
▁incredibl	-13.0982
▁slogan	-13.0982
▁800,000	-13.0982
fertiliz	-13.0984
▁Hoover	-13.0984
▁morale	-13.0992
▁sections	-13.0993
-5	-13.0999
2.75	-13.1
▁frustrat	-13.1005
▁Wilmington	-13.1007
▁glasnost	-13.1007
▁description	-13.1007
Wheat	-13.1008
▁Duke	-13.1008
▁handsome	-13.1009
secret	-13.1009
uch	-13.1013
4.25	-13.1018
shift	-13.1018
burning	-13.1019
▁passion	-13.1019
▁10.8	-13.1022
pat	-13.1023
ja	-13.1025
▁Front	-13.103
▁Orlando	-13.1031
▁bureaucratic	-13.1036
▁devise	-13.1039
▁enhanced	-13.1039
▁Sp	-13.1041
handl	-13.1045
▁deteriorati	-13.1055
fiction	-13.1055
Fleming	-13.1056
metropolitan	-13.1056
▁Norwegian	-13.1056
▁technician	-13.1056
▁bilateral	-13.1056
▁Conrail	-13.1056
▁Transport	-13.1056
▁Fried	-13.1059
▁disappeared	-13.1059
▁allowance	-13.106
▁boats	-13.1068
tur	-13.1069
▁Br	-13.1069
▁Ber	-13.1073
▁Libya	-13.1075
▁oversight	-13.1081
rolled	-13.1082
jury	-13.1083
uous	-13.1084
motivated	-13.1086
ella	-13.1096
▁relate	-13.1098
1.15	-13.1099
General	-13.11
section	-13.1102
▁Plaza	-13.1106
ific	-13.1107
▁inspect	-13.1107
▁brilliant	-13.1108
In	-13.1108
OS	-13.111
▁Palo	-13.111
▁narrower	-13.1119
liner	-13.1121
block	-13.1121
▁dull	-13.1125
lance	-13.1126
▁landscape	-13.1127
loved	-13.1129
▁inherit	-13.1131
▁Section	-13.1132
▁Ramada	-13.1132
▁MITI	-13.1132
fancy	-13.1132
▁CEO	-13.1132
tourist	-13.1134
▁119	-13.1138
roy	-13.1143
rent	-13.1144
theon	-13.1147
▁Oh	-13.1147
▁hanging	-13.1154
Im	-13.1154
▁overlook	-13.1156
▁spectacular	-13.1157
▁Noranda	-13.1157
▁BellSouth	-13.1157
▁Nanc	-13.1158
▁Sharon	-13.1158
▁NL	-13.1158
▁colony	-13.1159
vy	-13.1163
liter	-13.1164
▁Gross	-13.1165
▁forge	-13.1174
spec	-13.1176
▁PRIME	-13.1183
▁authorize	-13.1188
arriv	-13.1188
bone	-13.1192
▁peaked	-13.1194
▁220	-13.1194
merging	-13.1199
▁COMMERCIAL	-13.1207
▁Hitachi	-13.1207
recision	-13.1207
▁privacy	-13.1207
▁outnumber	-13.1208
▁pledg	-13.121
▁demonstrat	-13.121
suit	-13.1211
mal	-13.1217
▁desperate	-13.1222
▁salesmen	-13.1223
▁Bryan	-13.1225
▁Rod	-13.1228
ork	-13.1229
communication	-13.1231
acceleration	-13.1233
▁Buchanan	-13.1233
▁leisure	-13.1233
▁Harper	-13.1233
▁Manville	-13.1233
▁Winston	-13.1233
▁tables	-13.1235
▁overture	-13.1236
bell	-13.1243
serv	-13.1244
cil	-13.1247
▁Mack	-13.1247
ator	-13.1248
greed	-13.1249
▁Read	-13.1249
▁interven	-13.1251
▁Damon	-13.1252
coat	-13.1252
ram	-13.1253
▁Sand	-13.1254
▁Earth	-13.1258
▁Matsushita	-13.1258
breast	-13.1258
▁Mount	-13.1258
▁Woolworth	-13.1258
▁stagger	-13.1258
▁abolish	-13.1258
▁25-	-13.1261
lasting	-13.1263
relied	-13.1269
walk	-13.1273
shopping	-13.1279
tigious	-13.1284
▁comedy	-13.1285
▁Sham	-13.1285
▁forever	-13.1286
▁Joel	-13.1287
▁conversations	-13.1287
Roth	-13.129
▁apartments	-13.1292
Man	-13.1293
54	-13.1293
▁greet	-13.1294
▁Unil	-13.1294
gar	-13.1296
▁Film	-13.1297
ium	-13.1299
▁wishe	-13.1304
ju	-13.1306
-20	-13.1307
Mercury	-13.1309
▁decisive	-13.1309
▁swallow	-13.1309
▁Crown	-13.1319
prevailing	-13.1319
BA	-13.132
▁Too	-13.1322
assisted	-13.1322
motion	-13.1328
▁Fin	-13.1332
relevant	-13.1335
▁Obvious	-13.1335
▁recoup	-13.1335
Belzberg	-13.1335
▁criteria	-13.1335
distant	-13.1335
▁BMW	-13.1335
sey	-13.1335
▁Cole	-13.1336
▁amend	-13.1342
▁stag	-13.1343
▁steer	-13.1343
review	-13.1346
imply	-13.1347
▁12,000	-13.1351
inspir	-13.1352
▁pockets	-13.1357
thin	-13.1358
visual	-13.1358
▁Esse	-13.136
▁INTER	-13.1361
▁Aluminum	-13.1361
▁balloon	-13.1361
▁vegetable	-13.1361
▁Exclud	-13.1361
▁felony	-13.1362
▁Night	-13.1362
▁stockholder	-13.1363
▁unauthorized	-13.1364
publicize	-13.1365
agging	-13.1367
ez	-13.1369
▁structures	-13.1371
▁snow	-13.1371
▁persuad	-13.1372
▁satisfactor	-13.1375
access	-13.1376
trol	-13.1377
▁characteriz	-13.1377
pear	-13.1379
delayed	-13.1383
▁clue	-13.1386
▁silence	-13.1386
wings	-13.1391
affairs	-13.1393
▁depress	-13.1393
monitor	-13.1395
▁Ali	-13.1403
▁appointments	-13.1403
tour	-13.1405
▁Carlos	-13.1408
▁maximize	-13.1409
▁Cuomo	-13.1412
▁Graphic	-13.1412
▁Gannett	-13.1412
▁modernization	-13.1413
▁Supermarket	-13.1414
Estimated	-13.142
termed	-13.1428
▁peaceful	-13.1428
▁breed	-13.1428
▁terminate	-13.143
▁dying	-13.1435
Hugh	-13.1437
▁identical	-13.1438
▁Works	-13.1438
▁deployment	-13.1439
▁lobbyist	-13.144
▁750,000	-13.1441
optical	-13.1441
vin	-13.1442
▁installment	-13.1444
▁Win	-13.1446
gall	-13.145
▁provisional	-13.1458
political	-13.1459
▁GROUP	-13.1464
▁14-	-13.1464
▁casual	-13.1466
▁Genetic	-13.1467
▁Row	-13.1467
▁emotion	-13.1467
3.25	-13.147
German	-13.1471
equivalent	-13.1484
1985	-13.1485
wire	-13.1485
loses	-13.1487
▁Basic	-13.1489
Oldsmobile	-13.149
▁Assurance	-13.149
▁pizza	-13.149
rambling	-13.149
rey	-13.149
▁Joint	-13.1492
Ls	-13.1493
▁Val	-13.1494
▁tens	-13.1495
▁Lazard	-13.1497
▁vow	-13.1503
▁subs	-13.1504
tudies	-13.1504
▁Nu	-13.1506
mechanical	-13.1509
frame	-13.1516
▁Memphis	-13.1516
▁PAPER	-13.1516
▁scramble	-13.1516
harbor	-13.1516
▁gilt	-13.1517
dler	-13.1518
nationally	-13.1522
▁Christie	-13.1522
▁Peterson	-13.1522
warhead	-13.1523
capitalist	-13.1529
▁foe	-13.1532
▁Glen	-13.1535
lining	-13.1539
ives	-13.1541
▁Rupert	-13.1542
▁territories	-13.1542
▁PBS	-13.1542
▁exciting	-13.1545
▁farms	-13.1552
Base	-13.1556
▁override	-13.1561
reservation	-13.1563
▁Russia	-13.1564
ec	-13.1566
mond	-13.1568
▁Initiative	-13.1569
▁Toledo	-13.1569
▁Textr	-13.1569
▁Beech	-13.1569
▁continuous	-13.1569
▁Bloom	-13.1569
▁Alcan	-13.1569
▁Discover	-13.1569
▁Enterprise	-13.1571
▁contention	-13.1572
▁timetable	-13.1572
▁isolated	-13.1573
left	-13.1576
▁Glenn	-13.1576
71	-13.158
▁Banco	-13.1581
ordered	-13.1585
sheet	-13.1587
ugal	-13.1587
modification	-13.1595
▁entrepreneurial	-13.1595
▁peasant	-13.1595
Lyons	-13.1595
▁Growth	-13.1595
▁GSA	-13.1596
Say	-13.1599
decent	-13.1602
RA	-13.1603
▁Yo	-13.1603
▁Rex	-13.1613
▁Owners	-13.1613
volumes	-13.1614
▁Ask	-13.1616
pen	-13.1617
▁unacceptabl	-13.1621
▁Zay	-13.1633
ische	-13.164
clot	-13.1648
▁disastrous	-13.1648
▁Ethic	-13.1648
▁Country	-13.1648
▁Legal	-13.1649
▁Brent	-13.1649
▁Assistan	-13.1652
▁defects	-13.1674
▁chaos	-13.1674
▁Vernon	-13.1674
chairmen	-13.1675
▁ancient	-13.1677
▁spokes	-13.1677
▁dealership	-13.1678
▁Nine	-13.1681
▁Sure	-13.1688
Jacques	-13.1694
▁surgeon	-13.1694
atisfaction	-13.1701
▁Rule	-13.1701
▁profound	-13.1701
▁crackdown	-13.1703
employ	-13.1704
▁deterren	-13.1704
▁Neil	-13.1704
deficit	-13.1705
▁1999	-13.1708
▁wholesaler	-13.172
confidence	-13.1722
▁Gall	-13.1723
▁Stop	-13.1724
▁Scher	-13.1727
▁Champion	-13.1727
▁intensifie	-13.1728
▁Ri	-13.1729
complaining	-13.173
▁afterward	-13.1733
▁Estate	-13.1733
▁forum	-13.1736
9.25	-13.1741
PA	-13.1744
ok	-13.1745
alone	-13.1745
leman	-13.1745
egg	-13.1747
rup	-13.1748
▁Bowl	-13.1749
Yankee	-13.1751
anchor	-13.1754
▁Polys	-13.1755
▁mysteri	-13.1755
abuse	-13.1755
▁Down	-13.1757
CIO	-13.1759
▁17.5	-13.1759
feld	-13.176
▁dispose	-13.1764
yet	-13.1764
plex	-13.1769
OR	-13.1776
maintenance	-13.1777
explosive	-13.1778
▁Manuel	-13.1781
▁constituenc	-13.1781
malpractice	-13.1781
▁Gilbert	-13.1781
▁funny	-13.1781
▁flurr	-13.1782
Goodrich	-13.1782
▁extract	-13.1782
▁Koch	-13.1783
rushed	-13.1787
▁snapp	-13.1787
1.05	-13.1787
▁regret	-13.1787
eighth	-13.1787
pra	-13.1795
▁gesture	-13.1796
▁260	-13.1799
▁1/2-	-13.18
▁insufficient	-13.1802
lag	-13.1803
universal	-13.1808
▁flagship	-13.1808
▁Powell	-13.1808
infringement	-13.1808
nes	-13.181
eye	-13.1814
▁characterize	-13.1825
hur	-13.1828
▁Hal	-13.1828
tra	-13.183
organiz	-13.183
desirable	-13.1835
▁AFL	-13.1835
▁contemplat	-13.1835
Ti	-13.1835
▁Oakland	-13.1836
▁Benson	-13.1836
▁lands	-13.1843
-6	-13.1843
tab	-13.1849
settlement	-13.1849
▁median	-13.1849
▁scrapp	-13.1852
▁maneuver	-13.1852
▁upscale	-13.1855
Turkish	-13.1862
▁uranium	-13.1862
▁Acceptance	-13.1862
▁Keith	-13.1862
▁Empire	-13.1862
▁Records	-13.1863
View	-13.1864
labor	-13.1871
PL	-13.1873
ji	-13.1874
transfer	-13.1877
ians	-13.1885
vers	-13.1888
▁Searle	-13.1889
▁refrain	-13.1889
charge	-13.1889
▁wines	-13.1893
▁capitalism	-13.1899
▁dedicated	-13.1899
ane	-13.1905
othy	-13.1906
aki	-13.1907
▁10.2	-13.1908
▁Alto	-13.1908
emergenc	-13.1908
▁naturally	-13.191
lagg	-13.191
▁GATT	-13.1916
▁delicate	-13.1916
▁suspicious	-13.1916
▁headache	-13.1916
Ellis	-13.1916
▁Thing	-13.1919
Pierre	-13.1921
▁associat	-13.1922
hurst	-13.1922
ub	-13.1926
,900	-13.1929
▁contributor	-13.193
▁eggs	-13.1932
bri	-13.1933
choice	-13.1935
generate	-13.1937
lucky	-13.1938
nick	-13.1943
▁Wyoming	-13.1944
▁Wellington	-13.1944
buck	-13.1946
▁upturn	-13.1949
▁Woods	-13.1952
NCR	-13.1956
▁reader	-13.1958
▁Underwriter	-13.196
TO	-13.1962
1.80	-13.1964
Term	-13.197
▁beach	-13.197
▁Coffee	-13.1971
▁Mercedes	-13.1971
▁referendum	-13.1971
▁Soon	-13.1972
▁drafted	-13.1973
▁automat	-13.1978
▁heightened	-13.1981
leave	-13.1987
▁dean	-13.1988
▁describ	-13.1994
▁disagreed	-13.1994
chang	-13.1998
▁pregnan	-13.1998
▁fool	-13.1998
▁Beneficia	-13.1998
▁Garcia	-13.1998
▁Juan	-13.1998
▁dialogue	-13.1998
▁Rowe	-13.1998
▁erode	-13.1999
▁Key	-13.2
invest	-13.2002
▁maturit	-13.2003
▁streamline	-13.2012
▁wiped	-13.2012
▁Case	-13.2015
ural	-13.2017
▁emissions	-13.2017
AIDS	-13.2018
Diet	-13.202
▁Cellular	-13.2026
▁approving	-13.2026
▁summary	-13.2026
▁Rover	-13.2026
▁210	-13.2028
▁Higher	-13.203
jo	-13.2035
Aid	-13.2036
borough	-13.2039
▁charitabl	-13.2039
▁Benj	-13.2044
▁275	-13.2048
arose	-13.2048
▁Linda	-13.2049
▁Specific	-13.2053
Depression	-13.2053
Tribune	-13.2053
psychology	-13.2053
▁scatter	-13.2053
▁Katz	-13.2053
▁switche	-13.2054
▁facilitate	-13.2055
▁Vincent	-13.2056
▁dissolve	-13.2059
▁exaggerated	-13.2061
▁16-	-13.2062
▁14.5	-13.2065
▁Hunts	-13.2072
beam	-13.2079
ame	-13.208
▁Hercule	-13.2081
▁Spencer	-13.2081
Vietnamese	-13.2081
▁Shiite	-13.2081
▁Baby	-13.2085
stimulat	-13.2086
▁pools	-13.2087
subtle	-13.2093
▁Asher	-13.2094
▁Bel	-13.2094
▁supervise	-13.2096
▁varie	-13.2096
▁10.6	-13.2099
▁origin	-13.2101
▁entit	-13.2101
vis	-13.2105
▁professors	-13.2105
▁Kane	-13.2108
Cliffs	-13.2109
▁Dalkon	-13.2109
▁silent	-13.2109
▁faculty	-13.2109
bear	-13.2109
▁1964	-13.2109
▁Student	-13.2109
▁nonperforming	-13.211
child	-13.2113
▁celebration	-13.2114
▁mineral	-13.2117
▁grace	-13.2117
middle	-13.2117
5.75	-13.212
gap	-13.2122
fits	-13.2123
▁depict	-13.2133
▁Ste	-13.2135
▁Travelers	-13.2137
▁Southwestern	-13.2138
integration	-13.2139
▁communicate	-13.2141
Resources	-13.2142
dealing	-13.2147
wort	-13.2149
▁Manager	-13.2155
auster	-13.2162
concession	-13.2163
▁FASB	-13.2164
operate	-13.2164
▁unidentifi	-13.2164
▁Quin	-13.2164
▁Bert	-13.2165
bath	-13.2171
▁disruption	-13.2171
race	-13.2179
▁reviv	-13.2183
national	-13.2187
surprises	-13.2188
ordering	-13.2191
▁Hydro	-13.2191
▁Senior	-13.2192
-11	-13.2202
▁Sher	-13.2205
summer	-13.221
▁exceptional	-13.2216
300	-13.2218
rage	-13.2219
▁intensify	-13.222
▁Kellogg	-13.222
▁compos	-13.222
▁Broad	-13.222
sta	-13.222
greenmail	-13.222
▁Eli	-13.2222
▁Arts	-13.2224
solved	-13.2226
ERS	-13.2227
▁Teles	-13.2229
4.75	-13.2232
strike	-13.2241
▁heels	-13.2245
▁Tulsa	-13.2248
minster	-13.2248
▁peso	-13.2249
▁convey	-13.2249
Plus	-13.2255
▁Turn	-13.2259
▁arise	-13.226
▁singing	-13.2263
▁devis	-13.2268
▁Gear	-13.227
▁126	-13.2273
▁Gre	-13.2274
▁Restaurant	-13.2276
▁Would	-13.2276
▁prudent	-13.2276
▁propaganda	-13.2276
▁erosion	-13.2277
▁Father	-13.2278
▁redesign	-13.2282
▁Fish	-13.2289
Net	-13.2291
residence	-13.2295
▁Banca	-13.2298
▁arrang	-13.23
▁distinct	-13.2302
▁Institutional	-13.2304
▁Ortega	-13.2305
▁manipulate	-13.2305
▁puzzle	-13.2305
▁Armstrong	-13.2305
▁NFL	-13.2305
▁proprietary	-13.2305
▁Tam	-13.2308
▁favorab	-13.2311
fence	-13.2315
▁compelling	-13.2316
play	-13.2317
90,000	-13.2318
▁linking	-13.2321
lacked	-13.2322
▁Gun	-13.2324
ai	-13.2324
burg	-13.2327
▁appoint	-13.2328
▁Ironic	-13.2329
▁1965	-13.2332
hunter	-13.2333
bald	-13.2333
▁Kinnear	-13.2333
delegate	-13.2334
▁declaration	-13.2334
▁doom	-13.2335
▁founding	-13.2335
unity	-13.234
gu	-13.234
▁dual	-13.2341
▁aspir	-13.2348
▁lean	-13.2351
▁receivables	-13.2352
▁gamble	-13.2354
▁Pakistani	-13.2356
▁10.7	-13.2358
cushion	-13.2361
▁Marriott	-13.2361
▁Sarney	-13.2361
▁Agreement	-13.2361
▁insight	-13.2362
protective	-13.2364
▁swapp	-13.2364
receive	-13.2366
machine	-13.2368
▁surrender	-13.2369
1.70	-13.2371
Dutch	-13.2376
patient	-13.2377
▁Scient	-13.2381
IES	-13.2386
▁laborator	-13.2386
▁modify	-13.239
▁Marwick	-13.239
denomination	-13.239
▁ABM	-13.2391
▁Gaza	-13.2393
▁battl	-13.2399
▁spurt	-13.241
OK	-13.2416
network	-13.2417
▁Cambodia	-13.2418
▁Concern	-13.2418
ecrecy	-13.2418
tunnel	-13.2418
report	-13.2419
▁Kr	-13.2419
▁embarrassment	-13.2419
▁birthday	-13.2421
▁portable	-13.2422
cation	-13.2432
intelligence	-13.2436
travel	-13.2436
tire	-13.244
mere	-13.2441
▁Rica	-13.2442
mode	-13.2445
Hungarian	-13.2447
▁barometer	-13.2447
Domestic	-13.2447
Sound	-13.2448
▁helpful	-13.2449
▁sporting	-13.2456
CA	-13.2456
▁123	-13.2457
blown	-13.2458
raiser	-13.2459
▁Includ	-13.246
▁cater	-13.2462
steering	-13.2467
▁supervisi	-13.2468
▁imagin	-13.2472
▁inform	-13.2473
▁combin	-13.2473
measurement	-13.2473
▁145	-13.2474
bankrupt	-13.2476
▁Theodore	-13.2476
▁excitement	-13.2476
▁magnitude	-13.2476
▁relinquish	-13.2476
▁Mitsui	-13.2476
▁demographic	-13.2476
▁Seidman	-13.2476
▁Fire	-13.248
real	-13.2481
▁brewing	-13.2481
volt	-13.2482
certain	-13.2482
▁bottler	-13.2493
▁sorts	-13.2494
▁Bor	-13.2497
▁technically	-13.2498
▁interfere	-13.2503
scratch	-13.2505
▁Providence	-13.2505
▁Nobel	-13.2505
▁manual	-13.2505
▁tolerate	-13.2507
america	-13.2507
▁hardest	-13.251
slaughter	-13.2514
-19	-13.2518
els	-13.2528
supervis	-13.2528
▁modernize	-13.253
▁Sacramento	-13.2534
▁contracted	-13.2534
▁dispatch	-13.2535
▁Carson	-13.2536
liance	-13.254
▁successes	-13.2548
▁racis	-13.2551
▁enforc	-13.256
▁Additional	-13.2563
distinguish	-13.2567
▁drugstore	-13.2569
▁Bu	-13.2569
bypass	-13.2571
bie	-13.2579
▁faction	-13.2584
dies	-13.2588
▁Multi	-13.259
complicate	-13.2591
▁Ernst	-13.2592
▁comptroller	-13.2592
▁update	-13.2593
▁appointee	-13.2593
eff	-13.2594
ient	-13.2596
magnetic	-13.2602
▁Indians	-13.2606
▁Anne	-13.261
ST	-13.2612
spect	-13.2616
specially	-13.2617
corn	-13.2618
▁Emery	-13.2621
Yield	-13.2621
▁mystery	-13.2621
Challenger	-13.2621
▁pois	-13.2629
▁executed	-13.2629
critical	-13.2631
letter	-13.2635
▁Schering	-13.2639
▁undercut	-13.264
End	-13.2642
▁banning	-13.265
▁Fluor	-13.265
▁prob	-13.2651
▁Flight	-13.2652
draft	-13.2653
tract	-13.2653
▁generations	-13.2653
guided	-13.2654
▁128	-13.2655
1.20	-13.2658
make	-13.2662
▁Rick	-13.2663
▁Fine	-13.2663
▁bump	-13.2665
list	-13.2668
▁nominat	-13.2669
▁Wig	-13.2672
ire	-13.2677
▁shak	-13.2678
▁notify	-13.2678
▁album	-13.2679
interference	-13.2679
▁Scotland	-13.2679
▁Enron	-13.2679
filter	-13.268
▁Hale	-13.2681
brush	-13.2682
▁observ	-13.2682
▁Ram	-13.2683
gers	-13.2685
▁Phil	-13.2689
▁Grow	-13.269
▁Fink	-13.269
▁Cu	-13.2691
▁carbon	-13.2694
defendant	-13.2696
▁overrun	-13.2698
▁spreads	-13.2698
▁Guid	-13.2703
▁periodical	-13.2704
tumble	-13.2705
▁Peace	-13.2709
crunch	-13.2709
▁Colgate	-13.2709
▁Parib	-13.2709
▁Sherman	-13.271
▁necessit	-13.271
▁noise	-13.2716
▁Look	-13.2719
▁incorporat	-13.2728
knee	-13.2729
event	-13.2732
each	-13.2732
cal	-13.2736
tender	-13.2736
▁104	-13.2737
affluent	-13.2738
aterpillar	-13.2738
▁Eaton	-13.2738
▁Odyssey	-13.2738
von	-13.2743
rigg	-13.2744
endency	-13.2745
dressed	-13.2746
▁confess	-13.2758
▁Hoffman	-13.2763
liver	-13.2764
Mos	-13.2765
skirt	-13.2768
bacteria	-13.2768
▁1-2-3	-13.2768
▁Lebanese	-13.2768
▁festival	-13.2768
Weather	-13.2768
▁glad	-13.2768
stringent	-13.2768
▁Deput	-13.2769
9.95	-13.2769
320	-13.2769
troubled	-13.2772
note	-13.2775
▁IS	-13.2775
▁mechanic	-13.2776
▁Jefferson	-13.2781
erman	-13.2783
▁Personal	-13.2788
1.60	-13.2789
▁Ke	-13.2789
lifting	-13.2791
▁Er	-13.2794
▁fled	-13.2795
▁signature	-13.2797
▁stunned	-13.2797
▁Beazer	-13.2798
▁conferee	-13.2798
admissi	-13.2799
▁valu	-13.28
Gar	-13.2802
▁Actual	-13.2807
▁Low	-13.281
▁myth	-13.2813
orious	-13.2816
change	-13.2816
▁minimize	-13.2817
vest	-13.2819
Ray	-13.282
▁Maxi	-13.282
▁guilt	-13.2823
▁Stark	-13.2823
kim	-13.2826
collision	-13.2827
communism	-13.2827
bracket	-13.2827
▁legac	-13.2828
▁teeth	-13.2828
▁livestock	-13.283
▁11.4	-13.2831
rimming	-13.2832
▁reorganize	-13.2837
500	-13.2838
llies	-13.2839
lash	-13.284
colored	-13.2843
fighter	-13.2845
session	-13.2847
▁visitor	-13.285
zi	-13.285
▁reluctanc	-13.2857
▁disabled	-13.2857
▁Intermediate	-13.2857
▁Keefe	-13.2858
▁orchestra	-13.2858
measur	-13.2865
brake	-13.2867
1.35	-13.287
slice	-13.2872
lift	-13.2874
▁poses	-13.2877
▁Harrison	-13.2879
▁Matt	-13.288
certifi	-13.2887
▁Support	-13.2887
escort	-13.2887
crystal	-13.2887
▁accusation	-13.2887
▁Prebon	-13.2888
▁diesel	-13.2889
pur	-13.2894
▁organizer	-13.2899
1.85	-13.2899
▁mistaken	-13.2901
▁155	-13.2908
▁songs	-13.2912
hol	-13.2914
▁absurd	-13.2917
ester	-13.2919
▁Kent	-13.2922
▁Gut	-13.2922
ya	-13.2923
ilia	-13.2923
rail	-13.2925
▁pits	-13.2928
▁delaying	-13.2929
nail	-13.2937
▁Pizz	-13.2938
▁bite	-13.2938
before	-13.2939
▁safeguard	-13.2948
▁Inflation	-13.2949
AP	-13.2955
tz	-13.2961
1.95	-13.2962
▁45-	-13.2966
heavy	-13.2966
▁Leu	-13.2968
▁Cit	-13.2971
ratification	-13.2972
funct	-13.2977
▁stir	-13.2977
▁Sierra	-13.2977
▁jitter	-13.2977
▁Freedom	-13.2977
▁continuation	-13.2978
▁Hooker	-13.2978
▁revival	-13.2978
▁Theater	-13.2978
▁keen	-13.298
▁oblig	-13.2981
▁165	-13.2983
economic	-13.2983
▁freed	-13.2984
Town	-13.2985
▁pause	-13.2989
▁autos	-13.2992
Peters	-13.2995
tout	-13.2999
medic	-13.3005
▁ruin	-13.3008
▁Pioneer	-13.3008
▁multibillion	-13.3008
hungry	-13.3008
▁courtroom	-13.3019
▁Speak	-13.3038
▁Superior	-13.3038
welfare	-13.3039
▁Telex	-13.3039
Load	-13.3039
▁stolen	-13.304
lan	-13.3042
▁levie	-13.3047
brai	-13.3051
deck	-13.3051
▁spawn	-13.3053
▁erod	-13.3053
▁minerals	-13.3061
centered	-13.3064
▁Ogilv	-13.3069
jacket	-13.3069
▁psychologist	-13.3069
foul	-13.3069
unaro	-13.3069
▁Antar	-13.3069
▁rational	-13.3076
▁prohibition	-13.3079
▁walkout	-13.3083
MI	-13.3091
▁Cy	-13.3092
▁Gi	-13.3092
▁draws	-13.3094
▁antibod	-13.3094
▁Representatives	-13.3095
News	-13.3095
AG	-13.3095
▁Ginnie	-13.3099
▁Prospect	-13.3099
▁ideology	-13.3099
▁Saunder	-13.3099
▁Banque	-13.3099
turf	-13.3099
oda	-13.3101
flavor	-13.3103
cho	-13.3104
▁commissioners	-13.3106
▁reply	-13.3106
promotion	-13.3109
▁Shoe	-13.3112
1.06	-13.3118
▁seize	-13.3118
▁Sub	-13.3119
coating	-13.3119
▁holes	-13.3121
eers	-13.3123
▁waive	-13.3129
▁Pritzker	-13.313
▁survivor	-13.313
▁Borden	-13.313
▁Remic	-13.313
330	-13.3131
iff	-13.3131
▁Mu	-13.3134
▁Coal	-13.3138
derived	-13.3138
▁Did	-13.3139
▁Summ	-13.3139
.30	-13.314
aside	-13.3141
around	-13.3144
ello	-13.3149
▁CN	-13.3149
▁1.375	-13.315
park	-13.315
▁Palmer	-13.3151
▁Marion	-13.3151
▁Beth	-13.3157
Ridder	-13.3161
▁Baxter	-13.3161
▁centuries	-13.3161
▁Mulher	-13.3161
indebted	-13.3161
▁enemi	-13.3162
flower	-13.3163
▁construct	-13.3164
▁careers	-13.3165
ico	-13.317
Homes	-13.3172
estro	-13.3174
▁Cru	-13.3178
▁Industri	-13.3179
opinion	-13.3183
airline	-13.3184
Reagan	-13.3185
runner	-13.3187
ang	-13.3189
▁Supply	-13.3191
▁charity	-13.3192
▁Ashton	-13.3192
leather	-13.3192
▁spirits	-13.3195
▁Lud	-13.3195
▁grim	-13.3196
▁Helen	-13.3198
ponents	-13.32
▁trash	-13.32
▁Alcoa	-13.32
▁ratifi	-13.3203
Globe	-13.3204
▁Live	-13.3208
watchers	-13.3209
dating	-13.3214
counsel	-13.3214
▁farming	-13.3217
▁notable	-13.3218
Israel	-13.322
▁fad	-13.3221
cassette	-13.3222
▁Moines	-13.3222
piano	-13.3222
-1970	-13.3223
▁framework	-13.3223
ceiling	-13.3223
▁Railroad	-13.3223
▁Triton	-13.3223
inched	-13.3224
Egyptian	-13.3224
▁Todd	-13.3225
wit	-13.3225
med	-13.3225
▁unpaid	-13.3226
weighted	-13.3226
cart	-13.3233
talk	-13.3234
warrant	-13.3234
Queen	-13.3236
▁Lang	-13.3239
▁Dis	-13.3249
stating	-13.325
▁squeezed	-13.3253
▁Camp	-13.3253
▁Anchor	-13.3253
▁Jonathan	-13.3254
▁fragment	-13.3254
▁Forbes	-13.3254
▁Barnett	-13.3256
▁Clore	-13.3256
▁Clara	-13.3256
ology	-13.3263
three	-13.3265
▁aggregate	-13.327
▁guards	-13.328
pping	-13.3281
▁MO	-13.3284
▁courage	-13.3284
▁invoke	-13.3285
▁captain	-13.3285
▁Maj	-13.3286
▁jokes	-13.3288
mor	-13.3291
3,500	-13.3291
▁outlin	-13.3292
▁nerve	-13.3294
▁implied	-13.3294
ua	-13.3295
▁Deer	-13.3296
▁curbs	-13.3306
▁10.1	-13.3309
▁proxi	-13.3312
organized	-13.3316
▁comparative	-13.3317
▁lottery	-13.3317
turned	-13.3319
▁Cost	-13.3321
biolog	-13.3322
▁mainland	-13.3325
ease	-13.3325
▁scared	-13.3329
dash	-13.3334
adjustment	-13.3336
announce	-13.3338
69	-13.334
appraisal	-13.3341
bad	-13.3345
publish	-13.3345
▁sticking	-13.3345
▁absent	-13.3347
▁Malcolm	-13.3347
ready	-13.335
▁Pfi	-13.335
▁Which	-13.3352
-16	-13.3359
▁Greenberg	-13.3362
smuggl	-13.3366
▁Sharp	-13.3368
▁echo	-13.3372
ht	-13.3376
PI	-13.3376
▁Cash	-13.3378
▁contingenc	-13.3379
▁inappropriate	-13.3379
▁Medicine	-13.3379
▁Schnei	-13.3379
camp	-13.338
▁Alp	-13.3381
▁Blair	-13.3384
▁Kel	-13.3391
▁Horn	-13.3394
rom	-13.3395
▁reinstate	-13.3396
▁consequence	-13.3397
▁syndicated	-13.3409
Carlo	-13.341
▁deposition	-13.341
▁Legislature	-13.341
▁Revolution	-13.341
ola	-13.3411
▁179	-13.3411
▁Gregory	-13.3412
▁Takeover	-13.3412
▁shortfall	-13.3413
▁Neo	-13.3413
▁Wind	-13.3413
▁overly	-13.3415
▁reads	-13.3415
vale	-13.3417
▁Richards	-13.3417
fi	-13.3421
▁Ottawa	-13.3425
▁declar	-13.3426
▁prais	-13.3426
▁Less	-13.3426
▁Lin	-13.3433
lace	-13.3433
▁18.5	-13.3437
▁14.9	-13.344
hot	-13.3441
▁1940	-13.3442
chocolate	-13.3442
dominance	-13.3442
▁intelligent	-13.3442
▁literally	-13.3442
dze	-13.3443
▁televised	-13.3444
glove	-13.3447
▁Crow	-13.3462
▁undergo	-13.3462
▁multiples	-13.3462
▁appearances	-13.3462
finishing	-13.3463
▁midday	-13.3463
800	-13.3466
recent	-13.3468
▁Bull	-13.3468
▁inefficient	-13.3468
music	-13.3471
▁Gibraltar	-13.3474
▁Honduras	-13.3474
▁Purolator	-13.3474
▁Regard	-13.3474
▁threshold	-13.3474
tailor	-13.3476
mileage	-13.3476
▁Guarantee	-13.348
▁punch	-13.3482
▁outlaw	-13.3484
0.25	-13.3486
▁Inns	-13.3489
▁entertain	-13.349
▁tonight	-13.3493
▁16.5	-13.3495
▁independently	-13.3499
▁Yugoslavia	-13.35
Miller	-13.35
powerful	-13.3501
ennial	-13.3504
▁swimming	-13.3505
▁MasterCard	-13.3506
▁dismantle	-13.3506
▁acreage	-13.3506
▁Goldstein	-13.3506
▁11.3	-13.3506
rents	-13.3509
62	-13.3511
▁280	-13.3517
sville	-13.3519
▁Algeria	-13.3519
▁747	-13.3523
decliner	-13.3524
blood	-13.3527
▁symbolic	-13.3534
horizon	-13.3534
chemicals	-13.3535
Ran	-13.3536
▁bullet	-13.3537
▁electorate	-13.3537
▁suicide	-13.3537
▁excise	-13.3537
▁Desert	-13.3538
launder	-13.3538
▁traged	-13.3539
brown	-13.354
▁106	-13.354
▁conditional	-13.3543
▁Joy	-13.3544
▁stripped	-13.3544
▁Whar	-13.3546
sign	-13.3546
▁Za	-13.3547
▁Scientist	-13.3548
▁Springs	-13.3548
antic	-13.3551
▁Ja	-13.3552
▁cartoon	-13.3552
▁symptoms	-13.3553
▁shout	-13.3559
▁marking	-13.3562
▁implicat	-13.3562
merger	-13.3566
▁weighing	-13.3566
▁dubb	-13.3567
▁Gra	-13.3567
awareness	-13.3569
▁Lomas	-13.3569
▁Abraham	-13.3569
▁Peruvian	-13.3569
▁Artists	-13.357
best	-13.3571
▁Bowen	-13.3572
shorten	-13.3573
▁Lowe	-13.3574
▁Sens	-13.3576
▁probable	-13.3576
▁reasonabl	-13.3576
▁Gund	-13.3577
▁Gib	-13.3577
▁Curt	-13.3585
▁disturbing	-13.3586
▁complement	-13.3588
NEW	-13.3589
executive	-13.3594
bent	-13.3594
▁Aeronautic	-13.3596
stack	-13.36
▁Ferruzzi	-13.3602
▁Stealth	-13.3602
▁ammunition	-13.3602
▁unsettl	-13.3602
▁vacuum	-13.3602
▁spree	-13.3602
▁Barnes	-13.3602
▁Neb	-13.3602
▁Global	-13.3603
picture	-13.3605
▁Levin	-13.3605
▁Micron	-13.3606
▁inspire	-13.3611
▁discriminate	-13.3612
▁lament	-13.3615
▁Fre	-13.3617
cooking	-13.3618
▁Sal	-13.3619
▁omitt	-13.3623
proving	-13.3626
▁Lakes	-13.3628
▁Memor	-13.363
og	-13.3634
evasion	-13.3634
▁ACLU	-13.3634
Deaver	-13.3634
▁AFG	-13.3634
▁implementation	-13.3635
▁deliberation	-13.3635
▁Ris	-13.3636
contain	-13.3642
urring	-13.3643
tro	-13.3651
▁True	-13.3652
statement	-13.3656
mir	-13.3656
▁Bro	-13.3658
▁devote	-13.3664
▁knocked	-13.3665
eyond	-13.3666
▁Jenkins	-13.3666
▁Snyder	-13.3666
▁memorandum	-13.3666
▁Volvo	-13.3666
▁Bresser	-13.3666
▁Oxford	-13.3666
▁desktop	-13.3666
▁federation	-13.3666
tally	-13.3667
▁textbook	-13.3669
▁landmark	-13.367
▁scholars	-13.3672
▁Drew	-13.3672
▁Colombian	-13.3675
▁1962	-13.3676
▁Shin	-13.3679
cord	-13.3685
▁850	-13.3685
▁Robin	-13.3688
▁booking	-13.369
▁horses	-13.3691
sophisticat	-13.3692
bought	-13.3695
Werk	-13.3695
▁Hess	-13.3697
angle	-13.3698
▁Birmingham	-13.3699
▁Suzuki	-13.3699
▁engaging	-13.3699
▁unemploy	-13.3699
▁theories	-13.37
destination	-13.37
stick	-13.3701
▁spott	-13.3702
tapped	-13.3703
▁Veni	-13.3704
lit	-13.3707
▁warranty	-13.3707
▁soul	-13.371
fabricat	-13.3716
lack	-13.3719
▁victor	-13.3722
▁accumulate	-13.3723
gr	-13.3723
▁Jon	-13.3725
▁Lower	-13.373
▁Mun	-13.373
▁Better	-13.3732
▁payoff	-13.3733
▁succession	-13.3737
▁candy	-13.3738
described	-13.3739
cule	-13.3741
tilt	-13.3742
mortal	-13.3743
▁scant	-13.3751
rough	-13.3751
▁discouraged	-13.3759
UR	-13.3761
merchandising	-13.3764
▁Carnegie	-13.3764
▁enjoin	-13.3764
▁Lexington	-13.3764
▁Harbor	-13.3764
▁theoretical	-13.3764
▁affirmative	-13.3764
▁hormon	-13.3764
▁Retirement	-13.3764
▁Shoreham	-13.3764
▁royalty	-13.3764
▁photographs	-13.3764
▁shipyard	-13.3764
▁realignment	-13.3764
▁Kenner	-13.3766
▁Road	-13.3766
medal	-13.3767
▁Quant	-13.3768
▁13.6	-13.377
▁accomplishment	-13.3771
haven	-13.3777
butter	-13.3781
helm	-13.3782
▁jeopardize	-13.3789
▁Allan	-13.3796
accustom	-13.3797
▁McKesson	-13.3797
▁Twenty	-13.3797
▁Minstar	-13.3797
▁Taiwanese	-13.3797
bedroom	-13.3798
brook	-13.3803
▁meals	-13.3804
▁nights	-13.3805
▁Jacob	-13.3807
registered	-13.3811
balance	-13.3813
▁frank	-13.3815
▁inexpensive	-13.3817
▁Box	-13.3817
cer	-13.382
▁Roll	-13.3821
▁185	-13.3823
1.65	-13.3823
discharge	-13.3824
switch	-13.3827
▁Schmidt	-13.383
▁Pension	-13.383
▁insert	-13.3831
▁tourism	-13.3831
▁Phelps	-13.3832
ltenberg	-13.3832
▁unsol	-13.3834
▁Ap	-13.3835
▁impend	-13.3836
chemical	-13.3839
rig	-13.3841
▁AS	-13.3842
▁Islands	-13.3844
rings	-13.3844
▁seconds	-13.3844
▁Casualt	-13.3845
liberal	-13.3848
▁Zia	-13.3849
▁Bros	-13.385
▁airliner	-13.3856
ei	-13.3858
▁Yu	-13.386
lake	-13.386
bribery	-13.3863
▁spate	-13.3864
▁subway	-13.3866
▁crown	-13.3875
▁15.5	-13.3875
▁explode	-13.3878
repurchase	-13.3879
▁explod	-13.3881
bench	-13.3882
Design	-13.3884
▁materialize	-13.3888
▁uneas	-13.3889
▁Pace	-13.3892
▁Bailey	-13.3896
▁Currency	-13.3896
▁Vatican	-13.3896
▁lavish	-13.3896
▁Minorco	-13.3896
▁Demand	-13.3896
▁Burton	-13.3898
creat	-13.3902
Jet	-13.3903
57	-13.3908
▁17-	-13.3909
▁Dar	-13.3913
agers	-13.3918
nam	-13.3921
▁325	-13.3921
100	-13.3924
▁corrupt	-13.3928
▁Half	-13.3929
▁retroactive	-13.3929
▁jeans	-13.3929
▁safer	-13.3931
▁Haiti	-13.3933
▁colors	-13.3934
0.50	-13.3938
MC	-13.394
▁lecture	-13.3948
nalytical	-13.3951
gin	-13.3953
1.90	-13.3954
▁relation	-13.3954
▁automate	-13.3956
ration	-13.3957
▁Babbitt	-13.3962
▁chancellor	-13.3962
▁covenant	-13.3962
▁Hopkins	-13.3962
▁Corporation	-13.3962
▁IU	-13.3963
▁pessimistic	-13.3963
happy	-13.3963
stated	-13.3963
Brien	-13.3965
constructive	-13.397
▁Stephens	-13.3975
▁1920	-13.3977
cow	-13.398
environmentalist	-13.3991
Luxembourg	-13.3996
▁cogeneration	-13.3998
▁endure	-13.4003
▁mailed	-13.4006
▁pronounc	-13.4007
▁Ames	-13.4011
Times	-13.4014
▁Alaskan	-13.4016
open	-13.4017
▁Stor	-13.4017
Boy	-13.4029
▁instinct	-13.4029
▁accurac	-13.4029
▁autonomy	-13.4029
▁swamp	-13.4029
strong	-13.4032
▁nonrec	-13.4032
▁Investigator	-13.4063
injection	-13.4063
▁Litton	-13.4063
▁CBOE	-13.4063
▁levy	-13.4064
blue	-13.4064
▁Need	-13.4064
▁DNA	-13.4064
▁garment	-13.4065
▁protester	-13.4066
▁churches	-13.4069
glass	-13.4069
▁Stud	-13.4074
▁reassure	-13.4078
▁Bi	-13.4078
▁bombs	-13.4086
Cen	-13.4086
▁staffs	-13.4087
▁franchiser	-13.4089
▁Abu	-13.4094
brick	-13.4094
recycl	-13.4095
▁gallons	-13.4096
▁miracle	-13.4097
▁curious	-13.4097
▁Einstein	-13.4097
▁undoubted	-13.4097
▁Tor	-13.4098
▁Truck	-13.4098
▁rein	-13.4101
Crane	-13.4103
▁reflection	-13.4105
peddl	-13.4108
▁jurors	-13.4111
sburg	-13.4111
riches	-13.4113
▁reinforce	-13.4114
uk	-13.4114
▁caller	-13.4115
▁12.4	-13.412
51	-13.4121
val	-13.4127
continent	-13.413
▁affidavit	-13.4131
censor	-13.4131
▁Strong	-13.4131
▁credibl	-13.4131
▁Rapid	-13.4131
▁Wo	-13.4131
beaten	-13.4132
▁Boland	-13.4132
▁Plesse	-13.4133
bets	-13.4133
▁107	-13.4136
▁artistic	-13.4136
▁kickback	-13.4138
manned	-13.4139
hawk	-13.4141
▁flee	-13.4141
▁Carr	-13.4144
▁Guild	-13.4152
ahead	-13.4152
▁Alban	-13.4154
▁dilute	-13.4156
tack	-13.4157
BE	-13.4157
▁Equi	-13.4161
▁Buffalo	-13.4165
▁Ecuador	-13.4165
▁coincide	-13.4166
▁demonstrator	-13.4166
comb	-13.4166
▁observation	-13.4167
reimburse	-13.4168
▁libel	-13.4168
ASF	-13.4169
▁Abbo	-13.4169
▁investigative	-13.417
▁amass	-13.4172
▁flock	-13.4173
Salem	-13.4173
▁Tool	-13.4173
rat	-13.4174
▁Polit	-13.4178
▁incur	-13.4182
▁Fear	-13.4184
aide	-13.4189
Woo	-13.4189
ou	-13.4191
tics	-13.4193
▁bizarre	-13.4199
▁Foley	-13.4199
▁Detail	-13.4199
iegler	-13.42
▁Perell	-13.4205
sting	-13.4214
▁Leed	-13.4214
▁newest	-13.4217
▁relieve	-13.4218
▁Strip	-13.4219
sanction	-13.4219
lew	-13.422
ees	-13.4223
spite	-13.4224
ardo	-13.423
may	-13.423
evolution	-13.4232
▁Baghdad	-13.4233
▁Silicon	-13.4233
▁umbrella	-13.4233
▁stunning	-13.4233
▁charts	-13.4233
▁Ciba	-13.4233
▁vocal	-13.4233
connect	-13.4234
▁Rumor	-13.4234
▁upside	-13.4234
▁'60	-13.4238
him	-13.4239
erson	-13.4242
▁deepen	-13.4244
▁Milto	-13.4247
▁Clarke	-13.4248
▁Cooke	-13.425
▁Bud	-13.4251
▁teache	-13.4258
▁12.2	-13.4262
catching	-13.4263
abstract	-13.4267
▁13/16	-13.4267
▁Rockefeller	-13.4267
▁funnel	-13.4267
▁backward	-13.4271
▁excited	-13.4273
▁donate	-13.4275
▁prototype	-13.4276
hal	-13.4278
1,300	-13.428
salaried	-13.428
▁Come	-13.4286
▁holidays	-13.4288
lar	-13.4288
▁Capel	-13.4288
nce	-13.4292
7,500	-13.4296
dive	-13.4296
▁hottest	-13.4302
▁earmark	-13.4303
▁Franco	-13.4307
▁uphold	-13.431
passenger	-13.4315
▁sink	-13.4315
heads	-13.4318
▁Cha	-13.4319
▁scaled	-13.4322
uck	-13.4323
▁directive	-13.4325
chem	-13.4333
▁Grove	-13.4334
Chernobyl	-13.4337
▁arsenal	-13.4337
▁confusing	-13.4337
▁newcomer	-13.4337
▁Has	-13.4338
Way	-13.4338
renewal	-13.4341
▁Fernand	-13.4346
rode	-13.435
dock	-13.435
rec	-13.4351
▁Vi	-13.4352
▁22.5	-13.4352
▁Stan	-13.4355
▁12.3	-13.4356
City	-13.4359
news	-13.4359
▁plagu	-13.4361
▁Mak	-13.4365
operative	-13.4368
▁shap	-13.437
▁hung	-13.437
▁Container	-13.4371
▁shrunk	-13.4371
▁stupid	-13.4371
▁Saturn	-13.4371
hinder	-13.4371
▁LDP	-13.4371
▁cereal	-13.4372
▁Piper	-13.4372
▁spotlight	-13.4372
▁CFC	-13.4373
tell	-13.4375
▁Motoren	-13.4375
▁albe	-13.4376
▁10.9	-13.4378
notice	-13.438
2007	-13.4384
▁Sta	-13.4384
▁15.8	-13.4387
Francois	-13.4391
▁122	-13.4399
United	-13.4404
▁Gay	-13.4404
custod	-13.4405
East	-13.4406
▁Gibbs	-13.4406
▁Sotheby	-13.4406
▁devastating	-13.4406
Hirsch	-13.4406
Welch	-13.4406
▁qualification	-13.4406
▁spreadsheet	-13.4406
▁exert	-13.4407
▁ensur	-13.4407
▁accusing	-13.4407
▁Geoffr	-13.4408
▁crippl	-13.4418
warning	-13.442
▁thrill	-13.4422
economy	-13.4427
▁Barron	-13.4429
sberg	-13.4433
fe	-13.4434
▁composer	-13.4436
ogether	-13.4436
motivation	-13.4441
▁Composite	-13.4441
▁Kerkorian	-13.4441
▁Nugget	-13.4441
▁Porsche	-13.4441
accrual	-13.4441
▁unpopular	-13.4441
suppress	-13.4443
▁132	-13.4443
▁Sprink	-13.4444
repair	-13.4445
▁consultation	-13.4445
beneath	-13.4446
Arthur	-13.4447
igel	-13.4452
▁Commerciale	-13.4455
▁allocate	-13.4457
graphic	-13.4458
restructuring	-13.4459
▁Kay	-13.4459
▁launche	-13.446
▁Berg	-13.4467
▁Dear	-13.4467
practice	-13.4468
▁soup	-13.4469
▁petrochemical	-13.447
conservation	-13.4472
wash	-13.4475
Eight	-13.4475
Khomeini	-13.4476
▁Lyle	-13.4477
▁clever	-13.4477
cha	-13.4477
translation	-13.4477
managers	-13.4482
▁investigator	-13.4483
0.00	-13.4493
sung	-13.4499
▁incurr	-13.4499
nik	-13.4501
rne	-13.4503
▁hid	-13.4505
▁Convention	-13.4505
deposit	-13.4506
hier	-13.4508
▁inflow	-13.4508
curve	-13.451
ado	-13.4511
Shevardna	-13.4511
▁Benefit	-13.4511
▁Louvre	-13.4511
▁debacle	-13.4511
▁protracted	-13.4511
▁revelation	-13.4511
▁Helmut	-13.4511
▁Duncan	-13.4512
▁ample	-13.4514
▁doubtful	-13.4516
▁musicians	-13.4518
reign	-13.4519
gold	-13.452
acquisition	-13.4522
▁Hop	-13.4523
private	-13.4534
dec	-13.4535
▁Brand	-13.4541
▁195	-13.4545
▁communique	-13.4547
▁stomach	-13.4547
▁ridiculous	-13.4547
wick	-13.4548
moto	-13.4549
▁classroom	-13.4549
▁Bru	-13.4549
▁Lone	-13.455
ego	-13.4551
buro	-13.4552
▁Paso	-13.4554
▁Sanders	-13.4554
exist	-13.4556
▁Bells	-13.456
angered	-13.4562
▁respondent	-13.4562
▁Was	-13.4563
gainst	-13.4564
ibility	-13.4565
▁overwhelm	-13.4567
Systems	-13.4568
▁212	-13.4569
▁assign	-13.4569
FA	-13.4571
feeding	-13.4571
eck	-13.4574
▁Magazine	-13.4577
▁vivid	-13.4582
▁clarify	-13.4582
▁funeral	-13.4582
▁caucuse	-13.4584
consolidat	-13.4584
▁Wallach	-13.4584
Iran	-13.4585
▁winds	-13.4585
surge	-13.4592
tke	-13.4599
▁navigat	-13.4602
VI	-13.4602
Williams	-13.4604
democracy	-13.461
▁Marines	-13.4612
Ferr	-13.4614
verything	-13.4615
Peabody	-13.4617
▁Thousand	-13.4618
▁companion	-13.4618
▁sculpture	-13.4618
competence	-13.4618
▁pollster	-13.4618
▁Prize	-13.4619
▁socialism	-13.462
ula	-13.4621
zon	-13.4621
▁outspoken	-13.4621
▁rains	-13.4623
▁convene	-13.4624
▁attain	-13.4624
▁forgo	-13.4626
relieved	-13.4638
dor	-13.4642
▁Revco	-13.4642
drums	-13.4644
▁Mur	-13.4647
▁nightmare	-13.4648
uting	-13.4649
designing	-13.465
▁Cho	-13.4651
59	-13.4651
powder	-13.4653
▁Omaha	-13.4653
▁adjacen	-13.4653
▁inaccurate	-13.4653
▁Wonder	-13.4653
▁Denmark	-13.4654
▁remedy	-13.4654
▁Caledonian	-13.4654
▁mili	-13.4654
MS	-13.4655
▁parade	-13.4656
▁Highway	-13.4657
ens	-13.4657
▁Pact	-13.4659
▁derail	-13.4662
▁classical	-13.4666
▁obstruct	-13.4669
design	-13.4669
▁fever	-13.4669
ports	-13.4671
regard	-13.4673
▁resolv	-13.4673
holiday	-13.4674
▁stadium	-13.4675
belly	-13.4676
British	-13.4678
tter	-13.4678
▁uncertaint	-13.468
▁photos	-13.4682
leaning	-13.4684
fisher	-13.4685
▁judgments	-13.4689
▁Nebraska	-13.4689
▁defection	-13.4689
▁WPPSS	-13.4689
▁evolve	-13.469
▁uncomfortable	-13.4692
▁Austrian	-13.4697
▁unaware	-13.47
dish	-13.4706
finding	-13.4709
press	-13.4711
emba	-13.4714
▁Books	-13.4715
▁Inn	-13.4718
▁Communication	-13.4722
▁Cro	-13.4723
,500	-13.4724
▁Simpson	-13.4725
Geigy	-13.4725
▁detain	-13.4726
ifying	-13.4727
▁recreational	-13.4727
▁landlord	-13.4733
▁enlist	-13.4733
▁Akron	-13.4737
▁admir	-13.4737
cover	-13.474
▁12.6	-13.4741
uli	-13.4743
▁bosse	-13.4745
nu	-13.475
ripe	-13.475
gs	-13.4751
▁Dann	-13.4751
▁Yorker	-13.4755
lush	-13.4756
aire	-13.4756
▁bulls	-13.4756
fight	-13.4758
▁comeback	-13.4759
naissance	-13.4761
▁Traffic	-13.4761
▁Pollack	-13.4761
▁Buffett	-13.4762
▁minivan	-13.4763
▁Mine	-13.4765
▁Burma	-13.4766
▁Poeh	-13.4769
berry	-13.4773
▁Village	-13.4784
wine	-13.4787
incentive	-13.479
▁Adam	-13.4791
▁dictator	-13.4793
oh	-13.4795
▁reorganiz	-13.4796
▁Khashoggi	-13.4798
▁Pretoria	-13.4798
▁immense	-13.4798
▁harmful	-13.4799
BI	-13.4799
▁reel	-13.4799
jani	-13.4801
odge	-13.4802
▁toilet	-13.4804
bang	-13.4804
▁hence	-13.4805
▁capitalists	-13.4808
▁Publications	-13.4813
tility	-13.4814
▁13.2	-13.4816
▁Joan	-13.4817
sheer	-13.482
meter	-13.4823
cr	-13.4826
▁outfit	-13.4831
▁packaged	-13.4831
wee	-13.4832
▁Financier	-13.4834
▁seldom	-13.4834
▁widow	-13.4834
▁Memorial	-13.4834
▁Armenia	-13.4834
▁irregularit	-13.4834
▁Pipeline	-13.4835
alcoholic	-13.4835
▁scare	-13.4836
▁philosophical	-13.4838
TA	-13.4838
▁sensible	-13.484
1.45	-13.4841
Andre	-13.4846
▁reinsurance	-13.4846
▁lagging	-13.485
▁Pereir	-13.485
▁Bon	-13.4859
lu	-13.4868
▁Chen	-13.4868
agent	-13.4868
▁Jardine	-13.487
surgical	-13.487
▁Cancer	-13.4871
▁cleric	-13.4871
▁ballet	-13.4871
▁Railway	-13.4871
▁imagination	-13.4872
▁essay	-13.4872
▁Excel	-13.4878
Mail	-13.488
▁1961	-13.4883
eau	-13.4883
lam	-13.4884
wave	-13.4884
subscriber	-13.4887
ior	-13.4891
Inland	-13.4895
▁Bird	-13.4895
▁Jeff	-13.4899
▁Transco	-13.49
▁horror	-13.4907
▁WHO	-13.4907
▁Banner	-13.4907
▁proposition	-13.4908
▁Often	-13.4908
Frere	-13.4909
▁Haas	-13.491
▁denounc	-13.4915
▁Pete	-13.4916
cleaner	-13.4917
▁debat	-13.4919
▁Rhode	-13.4923
shelf	-13.4927
depressing	-13.4933
sensitivity	-13.4935
grabb	-13.494
▁Gran	-13.4941
16,000	-13.4942
▁implie	-13.4942
▁Zucker	-13.4944
▁Bridgestone	-13.4944
▁Goldsmith	-13.4944
▁112	-13.4944
computing	-13.4946
▁Publisher	-13.4949
▁anonymous	-13.4951
▁SAS	-13.4954
▁Rolls	-13.4956
▁Leas	-13.4957
picked	-13.4957
IM	-13.4958
▁11-	-13.4967
▁focuse	-13.4968
▁Block	-13.4969
▁Pear	-13.497
▁Inco	-13.4972
▁wells	-13.4976
lain	-13.4978
worn	-13.4978
▁civic	-13.4981
▁amateur	-13.4981
▁Baldwin	-13.4981
▁Alfons	-13.4981
▁Issue	-13.4981
1.10	-13.4983
rounds	-13.4984
Culver	-13.4985
▁Wil	-13.4988
Pic	-13.4992
▁preclude	-13.4994
▁outdoor	-13.4996
1.02	-13.4997
▁desperately	-13.4997
1.69	-13.4997
▁Monica	-13.4998
ash	-13.4998
▁Photo	-13.5
▁Gerber	-13.5002
▁homeowners	-13.5002
▁telephones	-13.5006
igna	-13.5006
▁Jo	-13.5007
TS	-13.5015
▁Commod	-13.5017
▁adjourn	-13.5017
▁Gibbons	-13.5018
▁defective	-13.5018
▁Brunei	-13.5018
▁verification	-13.5018
▁NTT	-13.5018
▁condom	-13.5019
Mark	-13.5019
rescheduling	-13.5019
▁12.50	-13.5024
▁railway	-13.5024
bin	-13.5031
corrected	-13.5031
▁softening	-13.5042
▁90-	-13.5048
suite	-13.5051
▁Officer	-13.5051
▁figur	-13.5052
▁presid	-13.5053
▁burgeon	-13.5055
▁elephant	-13.5055
Watergate	-13.5055
▁truce	-13.5056
▁reimbursement	-13.5056
▁elegan	-13.5056
▁managerial	-13.5058
won	-13.5059
notification	-13.5061
lier	-13.5062
▁slack	-13.5068
▁Guy	-13.507
▁confine	-13.5073
ager	-13.5073
▁bounced	-13.5074
▁wipe	-13.5075
▁planted	-13.5075
▁Ph	-13.5083
▁Bal	-13.5084
▁cook	-13.5085
▁Henderson	-13.5092
▁Rowntree	-13.5092
▁Soybean	-13.5092
▁epidemic	-13.5092
▁genetically	-13.5092
▁Kissinger	-13.5092
Nielsen	-13.5092
▁Cocoa	-13.5092
▁arbitrator	-13.5092
▁Freeport	-13.5092
Clean	-13.5093
▁900,000	-13.5093
▁fragile	-13.5093
▁pleasant	-13.5093
▁landfill	-13.5095
eight	-13.5097
▁allocat	-13.51
▁voter	-13.51
▁picket	-13.5101
prayer	-13.5101
▁24.9	-13.5114
pricing	-13.5114
▁Ab	-13.5115
▁disclos	-13.5115
▁12.7	-13.5117
▁advocated	-13.5119
▁Sha	-13.5124
bu	-13.5125
▁consume	-13.5125
yn	-13.5129
ermenta	-13.513
▁Tesoro	-13.513
▁Alzheimer	-13.513
▁Consultant	-13.513
▁Lauderdale	-13.513
▁Khoo	-13.513
▁Vanguard	-13.513
▁HOME	-13.513
▁Ridge	-13.513
imaging	-13.513
▁pregnancy	-13.5131
Qu	-13.5131
oxide	-13.5131
utilization	-13.5132
▁Putt	-13.5133
▁posture	-13.5133
rival	-13.5138
▁naming	-13.5142
▁Sky	-13.5142
▁phased	-13.5144
McCorm	-13.515
▁Side	-13.5158
kowski	-13.5161
tight	-13.5162
Bush	-13.5162
▁121	-13.5164
▁11.6	-13.5167
▁Brierley	-13.5167
grandfather	-13.5168
▁Tucker	-13.5168
▁Sud	-13.5171
▁Troy	-13.5173
▁Scali	-13.5174
▁skidd	-13.5175
▁challenger	-13.5175
▁Reich	-13.5179
Lawn	-13.5181
specific	-13.5181
serve	-13.5183
▁patron	-13.5183
▁poured	-13.5184
▁tightly	-13.5189
$	-13.5194
Wallac	-13.5197
▁jumbo	-13.5205
▁candidacy	-13.5205
▁dismal	-13.5205
▁robb	-13.5205
▁earnest	-13.5207
▁systematic	-13.5207
▁MIT	-13.5209
▁Full	-13.5213
enthal	-13.5214
itt	-13.5219
een	-13.5221
▁Dale	-13.5222
zy	-13.5223
▁jumping	-13.5223
mount	-13.5223
▁VA	-13.5224
▁Holland	-13.5225
ICC	-13.5232
▁Drav	-13.5236
▁Taco	-13.5239
af	-13.5239
gging	-13.524
illo	-13.5243
kiss	-13.5243
▁129	-13.5243
▁Schuster	-13.5243
▁OECD	-13.5243
▁fledgling	-13.5243
▁grasp	-13.5243
▁infrastructure	-13.5243
▁Thrift	-13.5243
reach	-13.5245
▁unified	-13.5245
▁Grossman	-13.5245
▁35-	-13.5252
hip	-13.5255
doubted	-13.5255
PG	-13.5255
populist	-13.526
▁upbeat	-13.5261
eyer	-13.5267
8.15	-13.527
preserv	-13.5272
▁Lynn	-13.5277
rash	-13.5277
rison	-13.5277
▁recess	-13.528
▁Appropriation	-13.5281
▁Lonrho	-13.5281
▁sprawl	-13.5281
▁Brunswick	-13.5281
▁Buckley	-13.5281
Round	-13.5282
gut	-13.5282
▁Zi	-13.5283
killer	-13.5285
▁CDC	-13.5287
idney	-13.5287
borne	-13.5293
▁lighter	-13.5296
▁reinvest	-13.53
1.87	-13.531
▁handicappe	-13.5314
rushing	-13.5317
4,500	-13.5318
1.16	-13.5318
Gardner	-13.5319
▁Sudden	-13.5319
itadel	-13.5319
kie	-13.5321
tenth	-13.5322
unionized	-13.5324
▁fame	-13.5325
tronics	-13.5328
newer	-13.5339
▁149	-13.5349
▁Never	-13.5354
bout	-13.5356
dancing	-13.5357
▁disregard	-13.5358
▁Pinoch	-13.5358
▁LeBow	-13.5358
▁KGB	-13.5358
▁wildlife	-13.5358
▁upgrading	-13.5358
▁phony	-13.5358
▁digest	-13.5359
program	-13.536
▁Sh	-13.5363
solvency	-13.5366
bach	-13.5367
▁Saul	-13.5369
▁conform	-13.5372
▁Count	-13.5373
zar	-13.5375
▁Traditional	-13.5378
1984	-13.5383
andra	-13.5383
ieg	-13.5386
▁belongs	-13.5386
slashing	-13.539
ranch	-13.5393
▁menu	-13.5394
▁Bhopal	-13.5396
TRUST	-13.5396
census	-13.5396
▁Cardinal	-13.5396
▁Working	-13.5396
▁irrelevant	-13.5396
▁Kemper	-13.5396
▁celebrity	-13.5396
-18	-13.5396
▁civilians	-13.5399
urges	-13.5399
treasurer	-13.5403
▁ironic	-13.5407
▁11.1	-13.5411
stabilization	-13.5411
▁sorry	-13.5412
▁constituents	-13.5414
▁crowds	-13.5416
▁Bab	-13.5417
▁contradict	-13.5417
benefits	-13.5418
▁feud	-13.5419
▁Lan	-13.5425
eger	-13.5425
▁bounce	-13.5428
▁Hanna	-13.5428
▁flourish	-13.543
als	-13.5431
▁109	-13.5433
▁Feld	-13.5433
▁etc	-13.5434
Humphrey	-13.5435
▁Either	-13.5435
▁rescind	-13.5435
▁Morning	-13.5435
▁Spokesm	-13.5435
▁Finland	-13.5435
wield	-13.5435
udging	-13.5435
▁commentator	-13.5436
▁118	-13.5437
Syrian	-13.5446
ancy	-13.5446
▁13.8	-13.545
ign	-13.5453
▁13.4	-13.5454
▁gentle	-13.5455
▁occurr	-13.5456
61	-13.5456
bon	-13.5456
present	-13.5461
course	-13.5465
ctic	-13.5469
▁Coul	-13.547
▁awkward	-13.5473
▁outweigh	-13.5473
▁Apparent	-13.5473
▁catalyst	-13.5473
▁erratic	-13.5473
ballistic	-13.5473
▁stint	-13.5473
▁multimillion	-13.5474
martial	-13.5474
eslie	-13.5474
till	-13.5475
▁plight	-13.5476
▁Thai	-13.5477
▁TW	-13.5479
nkel	-13.5479
▁Heart	-13.5481
software	-13.5484
▁Ian	-13.5485
▁113	-13.5485
▁scar	-13.5485
▁practic	-13.549
1.08	-13.5491
▁clearer	-13.5492
inal	-13.5492
nna	-13.5493
,300	-13.5494
strapped	-13.5495
▁continual	-13.5497
18,000	-13.5497
1,100	-13.5498
belief	-13.55
heir	-13.5506
▁Directors	-13.551
▁dubious	-13.5512
▁grievance	-13.5512
Bishop	-13.5512
▁stirred	-13.5512
signed	-13.5513
▁compell	-13.5514
▁credentials	-13.5516
auer	-13.5516
▁Summer	-13.5516
stine	-13.5517
▁Edgar	-13.5517
▁Wa	-13.5518
▁11.7	-13.5518
▁withhold	-13.5521
▁abort	-13.5521
balanc	-13.5523
▁Annualiz	-13.5529
teller	-13.5531
conservative	-13.5533
popp	-13.5537
1.03	-13.5539
▁Arias	-13.554
Ichi	-13.5542
brokerage	-13.5545
▁Lou	-13.5546
▁Gu	-13.5546
scheduling	-13.555
▁Temple	-13.5551
▁spiritual	-13.5551
▁Ongpi	-13.5551
▁endless	-13.5551
rehabilitation	-13.5551
▁Lipton	-13.5552
▁refrigerator	-13.5552
▁subordinates	-13.5552
▁Producer	-13.5552
▁Fowle	-13.5552
▁1963	-13.5552
▁transformation	-13.5553
buyout	-13.5555
dawn	-13.5556
auf	-13.5557
▁SBA	-13.5559
600	-13.556
▁invented	-13.5561
▁receiver	-13.5562
vested	-13.5563
▁neat	-13.5565
▁riots	-13.5568
lion	-13.5568
▁clashe	-13.557
▁Easter	-13.557
ening	-13.5575
respect	-13.5578
Life	-13.5579
ple	-13.5579
▁misrepresent	-13.5579
▁tackle	-13.5584
▁Amid	-13.5587
▁Consequent	-13.559
▁privatize	-13.559
▁unrealistic	-13.559
▁earliest	-13.559
▁span	-13.5594
▁unfriendl	-13.5595
fault	-13.5595
ero	-13.5596
Line	-13.5598
limit	-13.5599
▁Kurt	-13.5599
▁14.7	-13.56
Libyan	-13.5601
presidential	-13.5601
1,400	-13.5601
▁beans	-13.5603
▁runway	-13.5604
▁noon	-13.5609
▁Unicor	-13.5609
▁Hyde	-13.5609
▁bleak	-13.5609
zero	-13.5609
propell	-13.5613
regional	-13.5626
▁pope	-13.5626
▁70-	-13.5628
▁Newman	-13.5629
▁Continu	-13.563
▁batteries	-13.563
▁Festival	-13.563
▁Oscar	-13.563
▁marvel	-13.563
Royce	-13.563
mil	-13.5631
▁fur	-13.5635
▁shunn	-13.5635
375	-13.5639
▁Dee	-13.5641
▁GEC	-13.5641
sea	-13.5641
▁Venezuelan	-13.5643
hose	-13.5643
merge	-13.5645
▁execute	-13.5658
uc	-13.5659
▁Compar	-13.5661
rell	-13.5662
▁wheels	-13.5663
bel	-13.5664
▁Thur	-13.5668
▁Ruth	-13.5668
caucus	-13.5669
urgency	-13.5669
Giorgio	-13.5669
▁Bloomingdale	-13.5669
▁tangible	-13.5669
▁Pepper	-13.5669
▁Whin	-13.567
eman	-13.5676
TH	-13.568
fair	-13.568
▁bicycle	-13.568
AID	-13.5681
Arab	-13.5683
▁relie	-13.5685
▁spurn	-13.5685
▁142	-13.5687
tec	-13.569
▁Ranch	-13.5692
▁economical	-13.5692
instruction	-13.5693
▁factions	-13.5696
rin	-13.5702
irelli	-13.5702
pole	-13.5705
▁14.8	-13.5706
▁Military	-13.5709
▁Germain	-13.5709
▁Cyclo	-13.5709
▁journalism	-13.5709
▁subdue	-13.571
▁costume	-13.571
cake	-13.5712
prone	-13.5713
fast	-13.5719
1,600	-13.5721
▁Lance	-13.5724
stopping	-13.5725
▁144	-13.5726
▁micro	-13.5726
1.09	-13.5726
▁Sey	-13.5728
boo	-13.573
theater	-13.5732
▁Ott	-13.5735
oghu	-13.5742
▁motors	-13.5743
1.68	-13.5747
▁FOREIGN	-13.5749
▁ZZZZ	-13.5749
▁assassination	-13.5749
▁brochure	-13.5749
▁discrepanc	-13.5749
▁Lypho	-13.5749
▁Creek	-13.5749
▁resentment	-13.5749
▁Midway	-13.575
▁intimate	-13.575
wore	-13.5752
▁architecture	-13.5756
▁Except	-13.5767
completed	-13.5777
▁legs	-13.578
▁Majorit	-13.5782
▁dimension	-13.5785
diagnose	-13.5788
▁aftermath	-13.5789
▁wreck	-13.5789
▁Rosenberg	-13.5789
dried	-13.5789
▁OMB	-13.5789
▁predominant	-13.579
▁Regina	-13.5791
umble	-13.5791
▁hike	-13.5793
▁Kal	-13.5796
conceiv	-13.5797
▁drawback	-13.5804
mur	-13.5805
▁Fur	-13.5806
reinforced	-13.5806
▁Res	-13.5807
▁Kings	-13.581
▁Queens	-13.5811
1.77	-13.5815
▁taxi	-13.5815
holder	-13.5816
▁resurgenc	-13.5821
▁apt	-13.5822
▁replie	-13.5822
▁Lanka	-13.5824
▁frenz	-13.5826
▁bloody	-13.5828
▁Helms	-13.5829
▁spoil	-13.5829
▁Benton	-13.583
▁Protest	-13.583
▁wedding	-13.5831
▁Nichols	-13.5832
▁distortion	-13.5833
▁Dor	-13.5845
▁Child	-13.5848
ception	-13.5851
▁distinguished	-13.5852
▁Tur	-13.5855
125	-13.5864
▁Peres	-13.5865
▁Wu	-13.5868
▁mountains	-13.5869
seizure	-13.5869
▁conjuncti	-13.5869
▁Panhandle	-13.5869
▁synthetic	-13.5869
▁Doctor	-13.5869
▁tomato	-13.5869
▁Rales	-13.5869
einz	-13.5871
shatter	-13.5872
cla	-13.5873
▁Lip	-13.5874
uperconductivity	-13.5875
▁forceful	-13.5876
chase	-13.5881
▁Che	-13.5881
▁Crom	-13.5882
Burke	-13.5884
▁chairmanship	-13.5885
▁watche	-13.5888
▁Chancer	-13.5888
▁thank	-13.5891
tory	-13.5896
hl	-13.5899
▁Household	-13.5899
pal	-13.5901
establish	-13.5906
disproportionate	-13.591
generator	-13.591
▁parcel	-13.591
▁stubborn	-13.591
▁kingdom	-13.591
▁prescribe	-13.591
▁fret	-13.5912
▁Patricia	-13.5912
▁Hawaiian	-13.5915
commercial	-13.5915
▁Earl	-13.5917
▁bitterly	-13.5918
1.04	-13.5918
▁114	-13.5919
panel	-13.5919
1.82	-13.5922
▁outpac	-13.5927
▁vacations	-13.5929
transmission	-13.5931
cin	-13.5933
Looking	-13.5938
▁sail	-13.5944
utomotive	-13.5946
important	-13.5946
▁Wertheim	-13.5949
owski	-13.595
Horizon	-13.5951
stimulus	-13.5951
▁Dresdner	-13.5951
▁jolt	-13.5951
▁perfume	-13.5951
▁Solomon	-13.5951
tolerance	-13.5951
▁blessing	-13.5951
▁savv	-13.5951
▁Rubic	-13.5951
impact	-13.5953
▁13.50	-13.5955
▁Representative	-13.5956
goes	-13.5959
1.55	-13.5964
▁insistence	-13.5964
▁spinning	-13.5965
vita	-13.5965
showroom	-13.5966
▁1.625	-13.5966
ears	-13.5966
▁ruler	-13.5967
▁Inside	-13.5967
pared	-13.5967
av	-13.5973
▁evacu	-13.5973
ridde	-13.5979
appreciated	-13.5984
1.30	-13.5985
▁Appli	-13.5985
▁caps	-13.5987
mptroller	-13.5991
▁9/16	-13.5991
▁Amusement	-13.5991
▁Gandhi	-13.5991
▁Symphon	-13.5991
▁Veteran	-13.5991
▁languish	-13.5991
▁peculiar	-13.5991
▁Carroll	-13.5991
▁Automobile	-13.5991
▁PNC	-13.5992
▁silly	-13.5992
▁LOAN	-13.5992
▁Crude	-13.5992
mmigration	-13.5993
▁toughest	-13.5994
▁Gap	-13.5994
oo	-13.5996
mic	-13.5998
1.78	-13.6003
Bork	-13.6005
orrell	-13.6008
1.07	-13.6019
cab	-13.6022
CH	-13.6024
7.95	-13.6024
▁visa	-13.6029
1.67	-13.6032
Plymouth	-13.6032
▁customar	-13.6032
▁furious	-13.6032
▁Studio	-13.6032
tainted	-13.6032
▁Ozal	-13.6033
▁downgrading	-13.6033
▁insult	-13.6033
▁refineries	-13.6035
iser	-13.6036
▁ponder	-13.6037
fitting	-13.604
▁slot	-13.6042
basement	-13.6043
1.14	-13.6045
▁Ve	-13.6047
▁followers	-13.605
▁reschedule	-13.6053
▁matche	-13.6057
Station	-13.6061
eur	-13.6062
▁perk	-13.6064
USS	-13.6066
commission	-13.6073
▁ASSOCIATION	-13.6073
▁Wheeling	-13.6073
▁Placer	-13.6073
▁essence	-13.6073
▁remedie	-13.6073
▁Laboratory	-13.6074
affiliation	-13.6074
▁14.3	-13.6077
▁erect	-13.6079
▁lobbie	-13.608
▁Property	-13.6081
▁Equal	-13.6085
1,800	-13.6091
olar	-13.6097
▁perceive	-13.6103
▁Chang	-13.6104
134	-13.6106
▁Jerusalem	-13.6115
▁Speculation	-13.6115
▁explicitly	-13.6115
▁undersecretary	-13.6115
▁foreclosure	-13.6115
▁Ameritech	-13.6115
▁Oversea	-13.6115
▁InterFirst	-13.6115
▁Spectra	-13.6115
▁Wireless	-13.6115
▁nasty	-13.6117
solving	-13.612
▁mega	-13.6122
decision	-13.6122
arbitrage	-13.6126
aph	-13.6128
▁exhausted	-13.613
embarrassed	-13.6131
▁isolation	-13.6131
▁homeland	-13.6132
por	-13.6136
▁statutor	-13.6143
adventure	-13.6144
recovery	-13.6148
meters	-13.6148
▁Gal	-13.6148
▁flie	-13.6149
▁Productions	-13.6149
▁norm	-13.615
Electro	-13.6153
justice	-13.6155
▁fibers	-13.6155
Davis	-13.6156
turbine	-13.6156
▁Cyprus	-13.6156
▁Modern	-13.6156
▁embark	-13.6156
▁Osaka	-13.6156
▁genius	-13.6156
▁Disease	-13.6156
Hollings	-13.6157
frequency	-13.6157
Est	-13.6158
▁quell	-13.6159
laud	-13.6159
.70	-13.616
▁restart	-13.6161
▁banner	-13.6162
bolt	-13.6162
dding	-13.6165
▁affordable	-13.6165
▁Said	-13.6165
▁purported	-13.6165
▁11.8	-13.6166
rigs	-13.6166
▁clip	-13.6167
aired	-13.6167
eous	-13.617
ics	-13.6175
surpassed	-13.6176
rocket	-13.6178
Current	-13.618
bare	-13.6191
earns	-13.6191
▁Bridge	-13.6195
trition	-13.6198
▁occupy	-13.6198
▁Gabelli	-13.6198
▁Paisley	-13.6198
▁anonymity	-13.6198
▁unleash	-13.6198
▁Emerson	-13.6198
▁poultry	-13.6198
▁unreasonable	-13.6199
▁dilution	-13.6199
▁Truman	-13.6199
trumpet	-13.62
▁Mission	-13.6201
Pac	-13.6202
▁explosives	-13.6203
▁Mother	-13.6204
▁McKa	-13.6204
team	-13.6209
▁Marks	-13.6212
▁Freed	-13.6215
cept	-13.6217
inai	-13.6217
▁111	-13.622
▁moon	-13.6224
DI	-13.6227
▁swift	-13.6229
▁Yellow	-13.6229
Miyaza	-13.6229
▁beds	-13.6232
segregat	-13.6234
▁'70	-13.6238
ath	-13.6239
▁Zhao	-13.624
▁derivative	-13.624
▁gimmick	-13.624
tropic	-13.624
▁50-50	-13.624
▁codes	-13.6241
▁Cape	-13.6246
▁startling	-13.6249
▁Itel	-13.6253
Master	-13.6255
▁Medi	-13.6259
▁Plant	-13.626
sounding	-13.6261
vans	-13.6268
ut	-13.6268
Air	-13.6271
▁Au	-13.6277
▁orbit	-13.6278
agged	-13.6278
▁Accept	-13.6282
▁GRAIN	-13.6282
▁Texan	-13.6282
▁hesitate	-13.6282
▁upheaval	-13.6282
▁Jerome	-13.6282
▁impasse	-13.6282
▁fragrance	-13.6282
▁Theatre	-13.6282
▁Hambrec	-13.6282
▁microchip	-13.6282
intensit	-13.6282
▁garner	-13.6282
▁Plans	-13.6283
property	-13.6285
▁Burroughs	-13.6291
▁Humana	-13.6293
getting	-13.6294
▁photographer	-13.6295
▁Normal	-13.6297
idal	-13.6298
▁bale	-13.6303
RSB	-13.6303
Pitt	-13.6305
represented	-13.6307
▁11,000	-13.6309
▁flip	-13.6311
1.40	-13.6313
exploration	-13.6318
▁addresse	-13.632
Hel	-13.632
▁overvalu	-13.6323
▁liberty	-13.6324
▁tragic	-13.6324
mfac	-13.6324
▁Touche	-13.6324
▁Battle	-13.6324
▁Churchill	-13.6324
peripheral	-13.6325
▁Hatch	-13.6325
▁tractor	-13.6325
satellite	-13.6326
▁justification	-13.6326
▁CPC	-13.6326
▁Porter	-13.6329
▁Mol	-13.633
▁refuge	-13.6335
▁swiftly	-13.6335
hrank	-13.6336
-14	-13.6344
▁maneuvering	-13.6348
vitz	-13.635
▁pig	-13.6351
▁poly	-13.6351
gur	-13.6352
ming	-13.6352
▁retaliate	-13.6356
ened	-13.6359
▁premiere	-13.6362
process	-13.6363
▁32-	-13.6365
kilowatt	-13.6366
▁unlimited	-13.6366
▁champagne	-13.6366
▁outrageous	-13.6367
▁Have	-13.6368
identification	-13.637
▁dentist	-13.6372
dom	-13.6374
▁ultra	-13.6375
▁expell	-13.6376
wig	-13.638
▁Pol	-13.6382
▁fearful	-13.6382
▁simpl	-13.6382
▁Bec	-13.6382
▁genes	-13.6389
▁conv	-13.6391
wealth	-13.6392
▁Midwestern	-13.6393
central	-13.6393
gy	-13.6396
▁Arabian	-13.6396
▁117	-13.64
temp	-13.6403
▁Ash	-13.6403
▁reminder	-13.6403
▁poet	-13.6404
lower	-13.6406
▁65-	-13.6408
▁Ambassador	-13.6409
▁Rudolph	-13.6409
blade	-13.6409
▁hamburger	-13.6409
strid	-13.6409
▁Encor	-13.6409
coastal	-13.6411
▁abound	-13.6412
MG	-13.6418
▁Den	-13.6419
▁domestically	-13.642
carrier	-13.6421
▁131	-13.6421
▁pad	-13.6426
Milli	-13.6426
MP	-13.6427
▁circumvent	-13.6436
▁Micke	-13.6438
breaker	-13.6445
exhaust	-13.6448
SH	-13.6448
osko	-13.6448
▁faded	-13.6449
▁alternate	-13.6452
▁earthquake	-13.6452
▁implicit	-13.6452
▁buoyant	-13.6452
▁Noble	-13.6453
▁Hy	-13.6454
dressing	-13.6455
crop	-13.6455
▁Lied	-13.6458
iz	-13.6458
enterprise	-13.6461
▁21-	-13.6462
Moran	-13.6462
▁Clair	-13.6462
▁Run	-13.6463
▁distorted	-13.6465
fitness	-13.6465
▁renegotiate	-13.6467
0.01	-13.6469
gui	-13.6469
lid	-13.6472
▁boring	-13.6473
ace	-13.6476
▁fake	-13.6478
death	-13.6479
▁loosen	-13.6483
▁policyholder	-13.6491
340	-13.6493
▁Vick	-13.6494
humanitarian	-13.6495
▁BRIEF	-13.6495
▁Thornburgh	-13.6495
LaRoc	-13.6495
▁cockpit	-13.6495
▁ninth	-13.6495
▁championship	-13.6495
▁Reil	-13.6496
▁143	-13.6498
▁Whittle	-13.6498
▁inmates	-13.6499
▁13.3	-13.6503
▁Mini	-13.6503
1.19	-13.6506
CF	-13.6516
modern	-13.6519
Gem	-13.6523
▁Change	-13.6528
sion	-13.6529
bal	-13.6536
▁nonunion	-13.6537
▁procedural	-13.6538
▁smelter	-13.6538
▁Frueh	-13.6538
▁Tandem	-13.6538
▁Lion	-13.6538
▁polite	-13.6538
▁GDP	-13.6538
▁Burbank	-13.6538
OUS	-13.6539
▁flowers	-13.6539
▁15.2	-13.6539
attel	-13.6541
capitaliz	-13.6541
1.88	-13.6543
tongue	-13.6543
▁Qin	-13.6545
cooled	-13.6547
▁sake	-13.6547
▁17.6	-13.656
rug	-13.6564
Average	-13.6564
▁clerks	-13.6565
cs	-13.6568
consumer	-13.6574
▁Bad	-13.6579
1.13	-13.658
Rad	-13.658
vulnerabilit	-13.6581
▁Amtrak	-13.6581
▁SOYBEAN	-13.6581
▁exodus	-13.6581
▁patience	-13.6581
Monarch	-13.6581
▁Phel	-13.6582
▁shipbuilding	-13.6582
▁Engle	-13.6582
▁Triad	-13.6582
litz	-13.6582
▁360	-13.6584
▁Butcher	-13.6587
▁ouster	-13.6589
gum	-13.6589
grain	-13.659
▁Herz	-13.6592
furnishing	-13.6593
ohn	-13.6594
▁Galler	-13.6595
▁Aspin	-13.66
▁solar	-13.6602
equities	-13.6604
8.10	-13.6609
MAN	-13.661
▁suppose	-13.6613
tenant	-13.6613
chari	-13.6614
tile	-13.6616
▁hijack	-13.662
▁14.4	-13.6622
pessimis	-13.6624
▁takeoff	-13.6624
▁Monitor	-13.6624
▁Wheeler	-13.6624
▁spiral	-13.6624
▁Hasbro	-13.6624
▁cousin	-13.6624
▁corridor	-13.6624
dioxide	-13.6625
▁Martinez	-13.6625
▁Watson	-13.6625
▁fray	-13.6627
ail	-13.6627
▁friendship	-13.6627
▁unfold	-13.6627
Month	-13.6629
▁Heck	-13.6633
solvent	-13.6634
▁Snow	-13.6635
▁Melv	-13.6636
usual	-13.6639
advoca	-13.664
▁Farms	-13.6646
▁sovereignt	-13.6649
torn	-13.665
limits	-13.6651
iversity	-13.6652
▁defi	-13.6653
shade	-13.6653
inflict	-13.6654
heart	-13.6658
▁burdens	-13.666
▁democrac	-13.6664
aison	-13.6667
Logistic	-13.6668
spectacle	-13.6668
▁troubling	-13.6668
▁Spiegel	-13.6668
feasible	-13.6668
▁Thornton	-13.6668
▁Jacksonville	-13.6669
▁15.6	-13.6671
missions	-13.6674
▁verify	-13.6677
haired	-13.6678
scheduled	-13.668
▁Mag	-13.6681
▁resin	-13.6683
▁Jacobson	-13.6686
▁Cad	-13.6692
erner	-13.6697
▁Steelworker	-13.6698
▁SS	-13.6698
▁scan	-13.6699
▁downside	-13.6704
▁Summers	-13.671
proliferation	-13.6712
▁ENERGY	-13.6712
▁Hachette	-13.6712
▁Niagara	-13.6712
▁envoy	-13.6712
▁pragmatic	-13.6712
▁psychiatric	-13.6712
▁blanket	-13.6712
▁verge	-13.6712
▁138	-13.6712
intention	-13.6719
FOR	-13.672
1.01	-13.672
▁2003	-13.6723
polish	-13.6723
▁fallout	-13.6723
▁Denis	-13.6731
guaranteed	-13.6731
▁Mall	-13.6732
▁Newton	-13.6734
eco	-13.6735
▁uprising	-13.6735
▁Haven	-13.6739
▁locals	-13.674
▁Fal	-13.6742
▁calculat	-13.6742
▁16.6	-13.6742
▁Sak	-13.6744
▁Declin	-13.6748
department	-13.6748
Lease	-13.6754
simulat	-13.6754
▁Shad	-13.6755
▁1959	-13.6756
▁discouraging	-13.6756
▁Arlington	-13.6756
▁Heights	-13.6756
mmerz	-13.6756
▁detention	-13.6756
▁Doyle	-13.6756
▁Scottish	-13.6756
Hennessy	-13.6757
▁Guardia	-13.6758
▁Get	-13.676
▁fade	-13.6762
▁Closely	-13.6762
juries	-13.6765
▁topping	-13.6773
drop	-13.6774
bend	-13.6774
▁shower	-13.6775
▁Marlin	-13.6778
anese	-13.6779
bay	-13.678
GM	-13.6781
▁Rhodes	-13.6782
▁Mergers	-13.6785
▁Cold	-13.6785
chain	-13.6785
▁identifie	-13.6785
▁programmer	-13.6787
▁205	-13.6788
elle	-13.6788
▁obligate	-13.6791
pence	-13.6792
litter	-13.6792
ole	-13.6793
▁hinge	-13.6794
▁Play	-13.6795
PT	-13.6796
silicon	-13.6796
optic	-13.68
▁Meridian	-13.68
▁Shapiro	-13.68
▁Abbott	-13.68
▁negligence	-13.68
▁practitioner	-13.68
▁Cardena	-13.68
▁relentless	-13.6801
▁razor	-13.6801
bulb	-13.6801
▁dislike	-13.6802
▁township	-13.6803
▁wooden	-13.6803
▁appellate	-13.6805
▁contradiction	-13.6806
▁Colin	-13.6807
▁Chilean	-13.6809
earned	-13.681
loha	-13.681
▁CALL	-13.6811
▁Try	-13.6812
sufficient	-13.6819
short	-13.6821
▁Duff	-13.6821
▁22-	-13.6823
▁Hawk	-13.6823
rep	-13.6824
▁treasure	-13.6825
▁Hare	-13.6825
▁examiner	-13.6827
SI	-13.6827
bottom	-13.683
▁Sel	-13.6833
ovich	-13.6835
▁Model	-13.6835
Wor	-13.6836
▁hopeless	-13.6843
sulfur	-13.6845
▁Increasing	-13.6845
▁Johannesburg	-13.6845
▁Pilgrim	-13.6845
▁supreme	-13.6845
▁streamlining	-13.6845
▁VCR	-13.6845
graph	-13.6845
▁Usual	-13.6845
resistant	-13.6845
trafficking	-13.6845
Martell	-13.6846
prepared	-13.6846
▁buffer	-13.6846
theatrical	-13.6847
▁dining	-13.6847
▁Bermuda	-13.6851
lightly	-13.6852
▁sliding	-13.6854
choreograph	-13.6855
gates	-13.6855
▁inhibit	-13.686
enzie	-13.6863
▁19.9	-13.6867
▁naive	-13.6872
▁Allis	-13.6887
▁1,1	-13.6888
fuss	-13.6888
McGovern	-13.6889
▁Bronfman	-13.6889
▁Jovanovich	-13.6889
▁Textile	-13.6889
▁fluctuate	-13.6889
colonial	-13.6889
▁illnesses	-13.6892
▁Combin	-13.6892
▁summon	-13.6892
emer	-13.6894
▁battlefield	-13.6895
detector	-13.6895
zak	-13.6896
▁captive	-13.6897
▁13.9	-13.6898
1.66	-13.69
rctic	-13.6901
tung	-13.6904
▁Bang	-13.6904
▁palm	-13.6905
▁nickname	-13.6907
forma	-13.6914
leading	-13.6917
provide	-13.6921
▁periodic	-13.6924
communists	-13.6927
Mayer	-13.6931
Maria	-13.6932
▁Hog	-13.6932
iles	-13.6933
▁Recruit	-13.6934
▁renovation	-13.6934
▁Ericsson	-13.6934
▁Combusti	-13.6934
▁terrific	-13.6934
▁Kaplan	-13.6934
▁Hyatt	-13.6934
▁Nathan	-13.6935
▁Clinton	-13.6935
▁Ger	-13.6935
leaf	-13.6937
Schw	-13.6938
▁CMS	-13.694
▁Rank	-13.6943
▁jewel	-13.6947
▁defender	-13.6952
8.125	-13.6956
ET	-13.6956
compensation	-13.6957
ita	-13.6958
▁donat	-13.6958
▁'80	-13.6959
▁statu	-13.6959
effects	-13.6961
▁brass	-13.6961
assa	-13.6961
barge	-13.6963
yette	-13.6965
▁Virgin	-13.6971
LA	-13.6972
1.86	-13.6974
acco	-13.6976
capsule	-13.6979
▁Bronx	-13.6979
▁Financing	-13.6979
▁inconsistent	-13.6979
▁Higgins	-13.6979
▁marijuana	-13.6979
▁Hitler	-13.6979
▁skyrocket	-13.6979
certification	-13.6979
celebr	-13.698
▁endowment	-13.6981
▁outbreak	-13.6981
▁Drill	-13.6982
human	-13.6982
NO	-13.6983
▁Bates	-13.6984
▁warship	-13.6985
▁glasses	-13.6987
▁Again	-13.6989
lumberg	-13.699
Ho	-13.6994
▁locate	-13.6996
▁sabotage	-13.6998
ites	-13.7001
▁Firm	-13.7002
▁sedan	-13.7002
▁Qui	-13.7003
▁duplicate	-13.7004
earner	-13.7005
▁clam	-13.7006
▁Customer	-13.7011
lapse	-13.7013
▁Beck	-13.7014
dell	-13.7014
beer	-13.7014
▁mold	-13.7015
inning	-13.7017
llo	-13.7018
keep	-13.7019
cade	-13.702
▁Rubin	-13.702
▁Capt	-13.7023
▁offender	-13.7024
▁emperor	-13.7024
▁illusion	-13.7024
▁obsolet	-13.7024
crawl	-13.7025
Freight	-13.7025
Claude	-13.7025
admire	-13.7025
▁annu	-13.7027
shire	-13.7027
▁14.6	-13.7029
▁Lenin	-13.703
▁17.50	-13.703
▁zeal	-13.703
between	-13.7035
image	-13.7037
▁Dana	-13.704
▁standpoint	-13.704
▁Charlie	-13.7041
0.10	-13.7043
host	-13.7043
▁12.9	-13.7044
▁sovereign	-13.7045
align	-13.7045
7.20	-13.7046
▁Nash	-13.7051
▁Seat	-13.7052
▁medi	-13.7052
breeding	-13.7054
▁abortions	-13.7055
.75	-13.7057
▁screw	-13.7057
1,700	-13.7057
nutrition	-13.7061
▁Reflect	-13.7062
Direct	-13.7066
▁Employer	-13.707
▁Tariff	-13.707
outlet	-13.707
▁rampant	-13.707
▁Jolla	-13.707
▁Contel	-13.707
▁Tyler	-13.707
▁disgruntle	-13.707
▁escrow	-13.7071
Hansen	-13.7071
ootball	-13.7072
▁10.50	-13.7073
traditional	-13.7074
chat	-13.7074
▁Sav	-13.7077
jamm	-13.7078
thylene	-13.7079
canal	-13.708
▁290	-13.7085
▁Laid	-13.7085
▁Dry	-13.7087
stand	-13.7088
rist	-13.7089
Quist	-13.7094
lose	-13.7096
ceramic	-13.7104
▁Para	-13.7105
▁thriv	-13.7109
1.18	-13.7111
▁Ch	-13.7111
▁44-	-13.7115
client	-13.7115
▁subcompact	-13.7116
▁multilateral	-13.7116
▁Lindner	-13.7116
▁Farley	-13.7117
playing	-13.7119
▁Neal	-13.7119
▁disability	-13.712
ech	-13.712
▁Jaff	-13.7121
▁coordinator	-13.7121
▁societ	-13.7121
▁secretaries	-13.7122
▁Shi	-13.7126
▁organizational	-13.7127
ros	-13.7132
eh	-13.7137
▁brutal	-13.7137
shareholding	-13.7138
mother	-13.7138
▁graduated	-13.7141
▁Aside	-13.7142
▁complication	-13.7143
▁cracks	-13.7147
▁Camde	-13.7152
▁terror	-13.7153
Wald	-13.7153
▁Ethiopia	-13.7156
▁Pu	-13.716
ef	-13.7161
sarco	-13.7161
▁Catalyst	-13.7161
▁Election	-13.7161
▁Liberals	-13.7161
▁snack	-13.7162
feed	-13.7163
Hayes	-13.7165
▁Rican	-13.717
rrington	-13.7175
decorat	-13.7176
1.32	-13.7178
▁Fac	-13.7178
project	-13.7179
▁specter	-13.7179
bush	-13.7186
▁Jobs	-13.7192
sided	-13.7194
▁Outside	-13.7196
ius	-13.7198
iel	-13.7199
▁Advisor	-13.7203
▁Brew	-13.7204
rian	-13.7206
▁1948	-13.7207
▁physicist	-13.7208
chasing	-13.7208
harassment	-13.7208
▁Poles	-13.7209
▁Dominican	-13.7209
▁kits	-13.721
▁Gel	-13.7211
Barr	-13.7211
▁13.7	-13.7213
▁Ni	-13.7215
rant	-13.7216
▁Trustco	-13.7216
▁outflow	-13.7216
▁15.7	-13.7217
▁DE	-13.7217
▁Compu	-13.722
▁busi	-13.7223
rim	-13.7231
1.84	-13.7237
driving	-13.7237
TON	-13.7239
▁viewing	-13.7243
lund	-13.7247
stressing	-13.7247
thought	-13.7247
ib	-13.725
▁ceremon	-13.7252
156	-13.7253
▁Prosecutor	-13.7254
▁temptation	-13.7254
▁frontier	-13.7256
▁Frontier	-13.7256
▁undertaking	-13.7256
lens	-13.7256
▁stresse	-13.7258
▁Czechoslovakia	-13.7259
stretched	-13.726
▁Colt	-13.7261
▁Hicks	-13.7262
▁12.1	-13.7262
▁parental	-13.7263
▁11.25	-13.7266
▁Aero	-13.7266
▁Reid	-13.7267
var	-13.7268
Agra	-13.7273
analysis	-13.7277
▁exacerbate	-13.7279
▁pros	-13.7284
Flo	-13.7284
boost	-13.7286
▁colon	-13.7288
ILL	-13.7289
current	-13.729
▁Coopers	-13.7291
SL	-13.7297
Geo	-13.73
pine	-13.73
▁Emirate	-13.73
▁Survey	-13.73
▁surcharge	-13.73
▁insulation	-13.73
-1980	-13.7301
▁colonel	-13.7301
▁disposition	-13.7301
▁ritual	-13.7301
▁elementary	-13.7302
▁lugg	-13.7302
rie	-13.7303
arb	-13.7304
▁pour	-13.7313
▁reformer	-13.7314
▁pretend	-13.7317
▁Len	-13.7321
▁Bus	-13.7326
▁deprive	-13.7333
CIT	-13.7334
nova	-13.7342
-15	-13.7342
continental	-13.7345
ically	-13.7346
alloy	-13.7347
▁Honolulu	-13.7347
▁paralyz	-13.7347
▁OFFER	-13.7348
▁binge	-13.7348
▁adhere	-13.7348
▁prohibitive	-13.7348
▁Researcher	-13.7349
▁makeup	-13.7349
▁garage	-13.7349
▁Claibo	-13.7351
apple	-13.7354
▁Rail	-13.7355
▁grades	-13.7356
sham	-13.7357
NEY	-13.7357
[...]
